unsigned char yes_no_model_tflite[] = {
28, 0, 0, 0, 84, 70, 76, 51, 20, 0, 32, 0, 
28, 0, 24, 0, 20, 0, 16, 0, 12, 0, 0, 0, 
8, 0, 4, 0, 20, 0, 0, 0, 28, 0, 0, 0, 
136, 0, 0, 0, 224, 0, 0, 0, 96, 16, 1, 0, 
112, 16, 1, 0, 156, 26, 1, 0, 3, 0, 0, 0, 
1, 0, 0, 0, 4, 0, 0, 0, 150, 238, 254, 255, 
12, 0, 0, 0, 28, 0, 0, 0, 60, 0, 0, 0, 
15, 0, 0, 0, 115, 101, 114, 118, 105, 110, 103, 95, 
100, 101, 102, 97, 117, 108, 116, 0, 1, 0, 0, 0, 
4, 0, 0, 0, 148, 255, 255, 255, 17, 0, 0, 0, 
4, 0, 0, 0, 8, 0, 0, 0, 111, 117, 116, 112, 
117, 116, 95, 48, 0, 0, 0, 0, 1, 0, 0, 0, 
4, 0, 0, 0, 122, 239, 254, 255, 4, 0, 0, 0, 
11, 0, 0, 0, 105, 110, 112, 117, 116, 95, 108, 97, 
121, 101, 114, 0, 2, 0, 0, 0, 52, 0, 0, 0, 
4, 0, 0, 0, 220, 255, 255, 255, 20, 0, 0, 0, 
4, 0, 0, 0, 19, 0, 0, 0, 67, 79, 78, 86, 
69, 82, 83, 73, 79, 78, 95, 77, 69, 84, 65, 68, 
65, 84, 65, 0, 8, 0, 12, 0, 8, 0, 4, 0, 
8, 0, 0, 0, 19, 0, 0, 0, 4, 0, 0, 0, 
19, 0, 0, 0, 109, 105, 110, 95, 114, 117, 110, 116, 
105, 109, 101, 95, 118, 101, 114, 115, 105, 111, 110, 0, 
21, 0, 0, 0, 124, 15, 1, 0, 116, 15, 1, 0, 
228, 14, 1, 0, 212, 198, 0, 0, 196, 196, 0, 0, 
180, 4, 0, 0, 164, 3, 0, 0, 140, 3, 0, 0, 
116, 3, 0, 0, 36, 1, 0, 0, 212, 0, 0, 0, 
204, 0, 0, 0, 196, 0, 0, 0, 188, 0, 0, 0, 
180, 0, 0, 0, 172, 0, 0, 0, 164, 0, 0, 0, 
156, 0, 0, 0, 148, 0, 0, 0, 116, 0, 0, 0, 
4, 0, 0, 0, 70, 240, 254, 255, 4, 0, 0, 0, 
96, 0, 0, 0, 16, 0, 0, 0, 0, 0, 0, 0, 
8, 0, 14, 0, 8, 0, 4, 0, 8, 0, 0, 0, 
16, 0, 0, 0, 36, 0, 0, 0, 0, 0, 6, 0, 
8, 0, 4, 0, 6, 0, 0, 0, 4, 0, 0, 0, 
0, 0, 0, 0, 12, 0, 24, 0, 20, 0, 16, 0, 
12, 0, 4, 0, 12, 0, 0, 0, 119, 127, 211, 124, 
13, 203, 111, 190, 2, 0, 0, 0, 2, 0, 0, 0, 
4, 0, 0, 0, 6, 0, 0, 0, 50, 46, 49, 57, 
46, 48, 0, 0, 178, 240, 254, 255, 4, 0, 0, 0, 
16, 0, 0, 0, 49, 46, 53, 46, 48, 0, 0, 0, 
0, 0, 0, 0, 0, 0, 0, 0, 88, 231, 254, 255, 
92, 231, 254, 255, 96, 231, 254, 255, 100, 231, 254, 255, 
104, 231, 254, 255, 108, 231, 254, 255, 112, 231, 254, 255, 
116, 231, 254, 255, 238, 240, 254, 255, 4, 0, 0, 0, 
64, 0, 0, 0, 72, 211, 54, 189, 98, 70, 40, 190, 
50, 202, 166, 188, 227, 5, 212, 189, 89, 246, 198, 187, 
149, 125, 153, 188, 19, 60, 212, 187, 210, 6, 50, 189, 
143, 166, 54, 190, 26, 13, 144, 189, 29, 29, 47, 190, 
57, 225, 234, 189, 6, 83, 188, 189, 85, 22, 58, 190, 
9, 192, 23, 190, 165, 176, 242, 190, 58, 241, 254, 255, 
4, 0, 0, 0, 64, 2, 0, 0, 190, 111, 39, 189, 
37, 17, 197, 61, 184, 134, 238, 189, 205, 211, 74, 190, 
59, 245, 104, 62, 116, 217, 102, 62, 58, 21, 237, 61, 
153, 180, 15, 62, 141, 41, 249, 61, 48, 206, 231, 61, 
232, 173, 1, 61, 208, 206, 26, 62, 221, 35, 26, 190, 
225, 174, 248, 188, 98, 25, 129, 189, 189, 76, 228, 60, 
173, 206, 45, 190, 46, 3, 208, 189, 73, 62, 64, 190, 
98, 25, 4, 62, 170, 102, 45, 62, 42, 109, 11, 62, 
46, 20, 79, 190, 147, 10, 134, 190, 82, 137, 0, 62, 
108, 28, 164, 60, 29, 212, 170, 61, 129, 188, 140, 189, 
11, 207, 134, 61, 93, 108, 14, 190, 104, 245, 20, 188, 
152, 34, 158, 188, 89, 20, 160, 61, 160, 145, 6, 62, 
120, 14, 167, 186, 234, 98, 193, 61, 168, 118, 108, 62, 
18, 174, 19, 190, 103, 55, 165, 188, 51, 209, 209, 189, 
64, 21, 11, 62, 244, 36, 208, 189, 178, 188, 19, 188, 
111, 87, 68, 188, 108, 15, 63, 190, 62, 219, 60, 190, 
52, 77, 213, 61, 157, 134, 50, 62, 20, 98, 44, 62, 
58, 191, 31, 189, 60, 44, 228, 189, 50, 171, 158, 61, 
125, 121, 229, 61, 77, 124, 61, 188, 225, 225, 155, 61, 
84, 125, 7, 189, 81, 26, 36, 61, 48, 243, 4, 190, 
144, 218, 148, 61, 189, 49, 38, 190, 140, 100, 130, 188, 
213, 78, 160, 61, 170, 83, 59, 61, 19, 216, 239, 61, 
131, 15, 225, 61, 103, 74, 175, 60, 89, 142, 240, 61, 
119, 130, 41, 189, 121, 39, 84, 187, 120, 11, 31, 190, 
84, 63, 179, 189, 39, 238, 27, 62, 152, 228, 98, 61, 
93, 148, 230, 61, 42, 172, 90, 190, 237, 37, 242, 61, 
183, 66, 74, 62, 147, 126, 132, 58, 149, 23, 234, 60, 
39, 15, 186, 189, 204, 136, 242, 61, 229, 222, 45, 190, 
69, 130, 212, 61, 100, 158, 1, 62, 11, 52, 192, 61, 
66, 211, 254, 61, 90, 164, 233, 189, 57, 9, 39, 190, 
88, 245, 1, 190, 170, 252, 198, 61, 8, 22, 10, 62, 
214, 229, 226, 189, 40, 212, 142, 61, 102, 3, 227, 189, 
165, 216, 219, 189, 194, 7, 104, 62, 183, 78, 253, 60, 
42, 187, 73, 189, 88, 101, 10, 190, 220, 88, 86, 188, 
1, 28, 130, 189, 167, 42, 194, 188, 246, 34, 76, 62, 
139, 67, 90, 189, 197, 231, 204, 188, 17, 156, 203, 61, 
141, 231, 165, 189, 234, 242, 235, 189, 123, 207, 143, 189, 
216, 201, 22, 190, 206, 236, 159, 61, 41, 114, 160, 189, 
11, 131, 6, 190, 80, 65, 164, 188, 13, 104, 46, 62, 
103, 203, 239, 61, 233, 167, 205, 189, 33, 116, 63, 59, 
16, 182, 37, 60, 195, 72, 6, 190, 83, 251, 136, 61, 
16, 126, 22, 190, 156, 114, 220, 189, 243, 118, 27, 62, 
174, 99, 247, 189, 205, 64, 172, 189, 46, 107, 199, 188, 
56, 133, 16, 190, 137, 201, 89, 189, 226, 5, 58, 61, 
54, 129, 55, 61, 157, 180, 223, 189, 170, 179, 2, 62, 
201, 101, 255, 189, 0, 220, 53, 60, 66, 69, 83, 189, 
190, 185, 213, 58, 215, 252, 164, 189, 68, 79, 143, 189, 
75, 132, 163, 189, 231, 171, 64, 62, 205, 62, 154, 60, 
211, 64, 38, 61, 139, 171, 197, 189, 134, 243, 254, 255, 
4, 0, 0, 0, 8, 0, 0, 0, 255, 255, 255, 255, 
192, 0, 0, 0, 154, 243, 254, 255, 4, 0, 0, 0, 
8, 0, 0, 0, 118, 149, 149, 60, 219, 149, 149, 188, 
174, 243, 254, 255, 4, 0, 0, 0, 0, 1, 0, 0, 
14, 201, 34, 189, 252, 223, 4, 189, 206, 86, 66, 189, 
46, 195, 144, 188, 118, 189, 51, 189, 68, 57, 24, 189, 
6, 122, 86, 189, 92, 88, 166, 59, 152, 188, 144, 60, 
168, 252, 202, 186, 240, 25, 178, 188, 166, 35, 105, 188, 
252, 128, 13, 189, 118, 57, 149, 188, 10, 46, 66, 189, 
201, 63, 230, 188, 141, 89, 48, 188, 29, 139, 20, 189, 
153, 76, 6, 61, 134, 255, 184, 57, 37, 151, 123, 60, 
107, 15, 28, 188, 211, 104, 1, 189, 27, 126, 226, 188, 
211, 104, 162, 188, 82, 95, 143, 188, 14, 104, 230, 186, 
86, 155, 76, 188, 196, 51, 82, 187, 136, 173, 240, 187, 
211, 218, 86, 60, 115, 22, 207, 59, 205, 25, 2, 189, 
59, 190, 159, 188, 55, 26, 129, 60, 201, 124, 148, 189, 
241, 61, 210, 60, 199, 174, 223, 188, 9, 99, 38, 189, 
34, 15, 234, 59, 227, 131, 4, 189, 52, 188, 93, 188, 
122, 126, 162, 60, 190, 4, 137, 61, 243, 113, 215, 60, 
76, 174, 143, 60, 77, 128, 209, 60, 124, 85, 144, 188, 
210, 74, 139, 187, 235, 204, 139, 189, 220, 124, 101, 188, 
152, 130, 240, 187, 60, 62, 22, 61, 43, 24, 186, 188, 
16, 187, 60, 189, 26, 173, 0, 189, 47, 56, 221, 188, 
15, 51, 59, 60, 199, 126, 17, 189, 36, 133, 35, 187, 
169, 80, 18, 189, 176, 86, 250, 188, 236, 221, 174, 189, 
220, 19, 81, 188, 186, 244, 254, 255, 4, 0, 0, 0, 
0, 192, 0, 0, 49, 9, 182, 189, 115, 18, 211, 61, 
0, 15, 137, 189, 120, 227, 142, 61, 7, 164, 37, 190, 
112, 251, 43, 189, 135, 116, 193, 188, 184, 96, 66, 61, 
98, 134, 151, 61, 76, 58, 30, 190, 244, 158, 244, 61, 
124, 164, 10, 190, 172, 129, 19, 189, 114, 71, 26, 190, 
232, 200, 167, 189, 4, 5, 247, 188, 240, 201, 152, 189, 
144, 48, 55, 189, 232, 80, 43, 188, 179, 220, 113, 189, 
250, 141, 60, 58, 129, 205, 86, 189, 48, 149, 181, 187, 
132, 253, 250, 189, 188, 115, 217, 189, 153, 195, 21, 190, 
71, 103, 217, 188, 92, 41, 109, 61, 35, 126, 19, 190, 
200, 45, 91, 61, 221, 176, 3, 190, 194, 36, 184, 189, 
221, 146, 107, 60, 163, 184, 138, 189, 5, 215, 182, 189, 
0, 230, 195, 189, 168, 210, 129, 189, 123, 41, 149, 189, 
50, 140, 219, 61, 143, 222, 0, 189, 83, 64, 145, 60, 
66, 233, 74, 188, 205, 21, 11, 190, 219, 85, 40, 190, 
207, 171, 61, 190, 51, 15, 223, 189, 37, 168, 229, 189, 
188, 244, 182, 61, 8, 70, 84, 60, 221, 214, 228, 61, 
203, 105, 74, 190, 71, 90, 95, 189, 3, 145, 217, 189, 
101, 150, 137, 189, 151, 195, 125, 61, 174, 17, 255, 61, 
188, 137, 249, 189, 254, 34, 153, 189, 63, 19, 166, 187, 
50, 143, 234, 61, 173, 180, 123, 60, 148, 196, 33, 190, 
190, 182, 231, 61, 232, 137, 247, 189, 243, 73, 2, 188, 
153, 189, 174, 60, 1, 114, 200, 188, 175, 239, 11, 190, 
229, 174, 135, 61, 208, 118, 107, 61, 22, 34, 8, 190, 
194, 224, 72, 61, 202, 168, 72, 188, 230, 190, 166, 61, 
24, 5, 189, 188, 104, 252, 230, 189, 14, 76, 145, 188, 
30, 215, 173, 189, 157, 230, 13, 59, 153, 172, 158, 189, 
50, 219, 74, 61, 24, 57, 23, 190, 39, 83, 206, 188, 
118, 243, 90, 189, 231, 76, 188, 189, 100, 20, 52, 190, 
239, 76, 171, 189, 63, 155, 53, 62, 56, 193, 10, 190, 
95, 225, 52, 190, 106, 3, 190, 61, 64, 15, 8, 190, 
226, 80, 91, 188, 126, 103, 174, 189, 79, 16, 176, 189, 
116, 154, 109, 58, 168, 178, 167, 189, 103, 88, 250, 188, 
176, 68, 36, 190, 112, 112, 20, 190, 167, 175, 58, 61, 
102, 232, 4, 190, 186, 66, 191, 188, 41, 36, 111, 60, 
246, 185, 228, 186, 103, 154, 115, 189, 218, 250, 52, 189, 
185, 200, 82, 60, 170, 211, 158, 61, 32, 226, 197, 61, 
207, 3, 216, 61, 70, 244, 249, 61, 8, 100, 158, 189, 
234, 91, 195, 189, 49, 158, 39, 61, 66, 221, 86, 189, 
227, 106, 129, 61, 99, 142, 49, 190, 53, 173, 244, 188, 
108, 7, 18, 61, 250, 73, 131, 60, 84, 94, 129, 189, 
247, 97, 131, 189, 225, 197, 12, 190, 198, 126, 144, 61, 
34, 201, 151, 189, 4, 74, 93, 189, 226, 47, 1, 187, 
199, 74, 197, 61, 53, 172, 159, 189, 196, 10, 89, 61, 
93, 161, 45, 190, 171, 43, 49, 61, 52, 230, 233, 61, 
59, 92, 130, 61, 96, 46, 231, 189, 226, 52, 238, 61, 
141, 148, 24, 190, 236, 254, 5, 61, 88, 252, 6, 60, 
232, 254, 209, 189, 162, 19, 173, 189, 76, 92, 167, 61, 
192, 170, 2, 190, 209, 193, 83, 61, 108, 204, 36, 190, 
32, 255, 155, 189, 199, 4, 140, 60, 174, 10, 230, 61, 
24, 58, 22, 62, 114, 231, 138, 60, 185, 227, 140, 189, 
154, 74, 229, 188, 198, 190, 191, 61, 164, 139, 239, 61, 
146, 249, 252, 61, 84, 164, 76, 61, 250, 91, 3, 189, 
128, 102, 25, 188, 132, 96, 22, 190, 214, 247, 253, 189, 
181, 97, 1, 189, 151, 44, 3, 189, 193, 223, 90, 61, 
97, 156, 173, 61, 238, 148, 143, 61, 62, 15, 41, 190, 
125, 43, 33, 190, 6, 139, 137, 61, 21, 249, 39, 60, 
64, 251, 172, 188, 52, 174, 77, 189, 164, 26, 161, 189, 
192, 3, 142, 59, 184, 182, 149, 188, 64, 118, 119, 188, 
190, 39, 101, 61, 207, 124, 11, 61, 139, 79, 105, 189, 
147, 49, 128, 61, 107, 6, 2, 61, 187, 179, 10, 190, 
22, 2, 217, 189, 246, 169, 147, 189, 111, 158, 106, 189, 
59, 42, 198, 189, 244, 189, 80, 189, 194, 139, 74, 189, 
32, 94, 180, 61, 253, 242, 161, 189, 64, 198, 104, 60, 
211, 130, 206, 189, 217, 214, 183, 61, 220, 50, 195, 61, 
103, 118, 162, 61, 65, 230, 31, 189, 18, 124, 181, 61, 
91, 19, 32, 62, 23, 116, 136, 189, 235, 19, 213, 60, 
165, 73, 10, 61, 14, 171, 151, 190, 177, 16, 189, 189, 
53, 101, 94, 61, 106, 49, 160, 189, 223, 159, 115, 61, 
104, 10, 60, 61, 80, 112, 201, 189, 201, 78, 251, 188, 
51, 62, 247, 61, 2, 118, 117, 189, 31, 153, 1, 189, 
152, 111, 184, 61, 192, 251, 71, 61, 65, 89, 143, 189, 
225, 227, 59, 62, 161, 57, 249, 61, 227, 27, 22, 190, 
30, 18, 119, 190, 33, 103, 210, 188, 158, 20, 50, 190, 
133, 241, 52, 61, 211, 86, 115, 190, 201, 197, 4, 190, 
66, 175, 143, 60, 220, 85, 112, 59, 142, 185, 143, 189, 
67, 91, 55, 60, 206, 141, 46, 59, 88, 246, 234, 187, 
155, 37, 30, 62, 15, 218, 242, 188, 180, 1, 148, 188, 
152, 86, 162, 189, 238, 157, 47, 189, 201, 51, 153, 189, 
151, 1, 182, 61, 211, 167, 246, 60, 103, 178, 246, 189, 
133, 99, 141, 61, 203, 137, 103, 190, 150, 84, 177, 188, 
173, 12, 32, 61, 227, 146, 66, 189, 65, 131, 173, 60, 
177, 237, 3, 190, 62, 60, 173, 61, 71, 90, 178, 61, 
58, 184, 237, 189, 255, 204, 1, 62, 62, 51, 149, 189, 
90, 4, 222, 61, 84, 52, 173, 61, 231, 60, 182, 189, 
221, 225, 133, 61, 89, 167, 41, 190, 240, 91, 28, 190, 
100, 26, 241, 188, 35, 16, 50, 62, 166, 163, 57, 61, 
36, 84, 237, 189, 145, 109, 147, 189, 88, 25, 26, 62, 
73, 116, 7, 62, 72, 119, 225, 61, 150, 206, 247, 61, 
167, 32, 21, 190, 69, 15, 26, 190, 227, 98, 5, 190, 
115, 129, 191, 189, 93, 225, 141, 59, 67, 31, 87, 189, 
19, 16, 166, 61, 112, 172, 6, 62, 35, 160, 7, 62, 
108, 36, 35, 189, 108, 115, 217, 189, 147, 32, 43, 60, 
24, 40, 166, 61, 160, 188, 95, 189, 26, 140, 76, 59, 
163, 138, 210, 189, 186, 38, 188, 61, 141, 69, 68, 61, 
143, 160, 32, 61, 11, 227, 129, 61, 66, 114, 3, 62, 
254, 32, 189, 59, 216, 91, 40, 190, 182, 18, 253, 189, 
21, 107, 11, 62, 109, 146, 40, 190, 140, 8, 182, 61, 
160, 217, 211, 189, 101, 25, 229, 61, 37, 253, 31, 61, 
31, 12, 21, 189, 144, 10, 44, 61, 255, 170, 32, 189, 
115, 17, 194, 189, 40, 167, 160, 187, 53, 187, 1, 190, 
24, 234, 6, 62, 239, 95, 212, 61, 203, 6, 143, 61, 
83, 121, 197, 61, 22, 206, 38, 190, 88, 21, 218, 188, 
229, 26, 44, 190, 254, 145, 130, 60, 8, 178, 2, 188, 
167, 107, 3, 62, 108, 84, 200, 188, 164, 98, 197, 61, 
114, 138, 23, 62, 179, 216, 103, 186, 8, 180, 196, 188, 
192, 231, 14, 190, 75, 33, 179, 189, 18, 204, 23, 62, 
98, 144, 158, 61, 33, 74, 18, 189, 113, 142, 159, 189, 
25, 92, 136, 188, 172, 79, 41, 62, 0, 181, 0, 61, 
61, 216, 114, 61, 191, 220, 2, 60, 148, 200, 191, 189, 
81, 241, 22, 62, 246, 127, 11, 62, 161, 46, 144, 61, 
189, 87, 223, 61, 225, 56, 10, 188, 179, 180, 39, 190, 
134, 102, 55, 61, 201, 81, 32, 62, 36, 163, 250, 189, 
62, 234, 187, 189, 38, 173, 171, 61, 157, 1, 74, 59, 
233, 15, 22, 190, 31, 130, 198, 188, 32, 255, 11, 62, 
183, 33, 17, 62, 99, 6, 108, 61, 27, 178, 87, 62, 
10, 68, 244, 61, 195, 44, 93, 61, 47, 168, 20, 190, 
116, 116, 172, 188, 3, 203, 48, 189, 182, 39, 231, 189, 
63, 198, 215, 189, 195, 230, 37, 59, 234, 169, 148, 189, 
32, 212, 46, 60, 60, 79, 163, 61, 250, 14, 190, 188, 
57, 83, 242, 189, 155, 254, 228, 187, 118, 184, 106, 62, 
4, 101, 70, 189, 101, 127, 249, 61, 183, 37, 157, 189, 
247, 130, 30, 61, 176, 75, 142, 61, 141, 163, 141, 62, 
216, 32, 122, 188, 241, 228, 21, 189, 222, 100, 107, 189, 
192, 225, 157, 188, 233, 188, 107, 189, 205, 173, 137, 189, 
34, 135, 17, 62, 236, 104, 16, 190, 219, 243, 2, 189, 
6, 145, 28, 61, 50, 111, 123, 188, 105, 21, 166, 189, 
162, 246, 39, 62, 77, 159, 208, 61, 62, 228, 237, 189, 
21, 125, 39, 190, 102, 183, 48, 190, 186, 100, 155, 59, 
9, 64, 26, 62, 77, 38, 159, 61, 201, 57, 17, 189, 
150, 225, 174, 188, 198, 49, 143, 60, 246, 5, 123, 188, 
148, 158, 138, 189, 205, 98, 19, 62, 204, 67, 43, 189, 
191, 246, 251, 188, 226, 43, 22, 62, 121, 218, 15, 189, 
208, 95, 10, 61, 206, 67, 2, 60, 231, 60, 123, 61, 
166, 190, 112, 189, 136, 180, 13, 62, 228, 252, 159, 189, 
151, 7, 11, 190, 118, 202, 224, 189, 77, 212, 233, 61, 
126, 192, 4, 62, 175, 221, 220, 189, 225, 75, 92, 61, 
162, 235, 130, 59, 116, 157, 146, 189, 167, 194, 8, 190, 
18, 31, 177, 188, 82, 29, 0, 190, 16, 159, 255, 189, 
151, 108, 244, 189, 126, 61, 177, 189, 117, 95, 236, 189, 
39, 82, 211, 60, 194, 64, 61, 61, 151, 27, 142, 189, 
174, 189, 246, 61, 142, 223, 245, 61, 70, 252, 230, 189, 
255, 138, 133, 61, 168, 60, 12, 190, 137, 80, 50, 189, 
114, 49, 176, 61, 221, 76, 21, 190, 22, 246, 251, 61, 
249, 163, 168, 189, 159, 52, 235, 61, 88, 145, 25, 190, 
246, 116, 241, 189, 5, 104, 65, 61, 29, 100, 157, 61, 
106, 217, 104, 61, 240, 95, 99, 60, 39, 212, 205, 188, 
61, 91, 209, 61, 127, 169, 154, 188, 189, 228, 51, 61, 
131, 215, 240, 61, 209, 214, 162, 61, 133, 253, 111, 61, 
106, 29, 1, 62, 105, 212, 84, 61, 135, 74, 128, 189, 
19, 242, 101, 189, 79, 247, 168, 189, 52, 17, 87, 189, 
139, 98, 248, 60, 223, 96, 8, 60, 221, 138, 150, 189, 
24, 92, 4, 189, 156, 248, 158, 187, 124, 89, 72, 62, 
98, 151, 220, 61, 102, 42, 180, 189, 61, 35, 177, 187, 
17, 185, 232, 61, 170, 6, 179, 61, 92, 35, 140, 189, 
236, 84, 236, 187, 209, 50, 210, 61, 60, 148, 24, 190, 
237, 142, 148, 189, 122, 185, 232, 188, 95, 217, 141, 61, 
96, 231, 70, 61, 179, 40, 164, 61, 140, 148, 55, 189, 
201, 51, 201, 61, 34, 63, 215, 61, 189, 2, 229, 187, 
134, 133, 88, 189, 59, 44, 50, 61, 160, 237, 12, 190, 
140, 106, 65, 190, 221, 27, 39, 190, 55, 170, 3, 62, 
152, 122, 0, 62, 202, 105, 192, 61, 227, 200, 131, 189, 
215, 71, 226, 189, 86, 77, 189, 60, 34, 207, 2, 189, 
180, 162, 213, 188, 185, 224, 135, 189, 65, 46, 154, 189, 
209, 244, 15, 62, 109, 27, 235, 60, 170, 111, 14, 62, 
48, 201, 237, 58, 166, 81, 188, 61, 53, 25, 85, 61, 
254, 126, 16, 190, 48, 70, 144, 189, 254, 126, 165, 60, 
101, 157, 37, 190, 157, 169, 62, 189, 243, 122, 10, 62, 
106, 97, 227, 61, 223, 17, 202, 61, 225, 58, 206, 189, 
44, 238, 190, 188, 47, 252, 76, 61, 76, 130, 42, 61, 
171, 155, 217, 61, 220, 76, 167, 189, 118, 186, 115, 61, 
171, 42, 225, 60, 175, 178, 195, 61, 65, 157, 5, 62, 
36, 145, 151, 61, 224, 222, 158, 59, 37, 204, 44, 189, 
86, 143, 157, 60, 141, 89, 129, 189, 127, 150, 209, 189, 
140, 134, 45, 190, 220, 107, 217, 61, 119, 148, 250, 187, 
214, 146, 213, 189, 91, 156, 95, 61, 211, 156, 134, 190, 
176, 125, 2, 188, 226, 96, 109, 61, 96, 191, 157, 60, 
146, 84, 222, 187, 137, 157, 203, 61, 118, 27, 52, 190, 
192, 19, 122, 61, 181, 102, 214, 188, 126, 142, 58, 189, 
250, 214, 26, 61, 135, 72, 144, 189, 139, 170, 23, 61, 
109, 67, 13, 62, 203, 131, 40, 190, 193, 17, 41, 190, 
58, 228, 30, 62, 13, 104, 50, 190, 45, 251, 149, 187, 
155, 81, 227, 61, 102, 229, 57, 189, 223, 66, 249, 189, 
154, 129, 10, 190, 196, 230, 115, 61, 91, 101, 149, 61, 
243, 0, 52, 59, 24, 156, 217, 60, 41, 127, 31, 190, 
188, 95, 30, 61, 214, 11, 59, 190, 221, 85, 131, 188, 
235, 176, 155, 189, 225, 42, 102, 60, 224, 91, 95, 60, 
213, 62, 186, 189, 244, 237, 214, 61, 87, 213, 186, 189, 
91, 28, 185, 61, 128, 130, 66, 190, 38, 253, 227, 189, 
80, 238, 177, 189, 47, 104, 155, 188, 125, 31, 84, 189, 
184, 253, 101, 189, 21, 237, 224, 188, 11, 248, 206, 188, 
68, 90, 8, 61, 168, 123, 16, 189, 28, 207, 255, 60, 
60, 74, 53, 190, 249, 13, 114, 61, 205, 255, 14, 61, 
80, 54, 220, 60, 188, 160, 60, 57, 204, 35, 5, 190, 
5, 194, 201, 61, 26, 106, 252, 60, 138, 35, 210, 187, 
171, 210, 243, 189, 100, 47, 84, 188, 195, 248, 123, 189, 
163, 237, 149, 188, 27, 236, 75, 61, 155, 201, 15, 189, 
14, 182, 48, 61, 247, 145, 70, 61, 36, 123, 2, 62, 
206, 93, 127, 61, 195, 170, 134, 188, 22, 55, 220, 60, 
197, 81, 172, 61, 242, 209, 16, 189, 17, 193, 198, 61, 
252, 245, 64, 190, 72, 210, 222, 189, 213, 247, 63, 189, 
169, 178, 64, 60, 96, 42, 242, 60, 120, 37, 177, 186, 
238, 219, 37, 61, 246, 94, 218, 61, 128, 20, 193, 189, 
206, 156, 175, 60, 122, 164, 233, 61, 121, 80, 245, 189, 
169, 9, 23, 62, 227, 34, 27, 188, 248, 92, 234, 60, 
69, 125, 18, 61, 247, 254, 227, 61, 41, 81, 41, 189, 
30, 65, 230, 61, 39, 151, 18, 189, 46, 206, 30, 190, 
105, 26, 98, 61, 49, 195, 128, 60, 44, 161, 202, 189, 
80, 161, 176, 188, 208, 122, 123, 189, 94, 227, 29, 189, 
252, 239, 205, 61, 153, 188, 154, 61, 27, 200, 229, 189, 
159, 36, 71, 189, 106, 96, 16, 189, 84, 89, 225, 60, 
39, 96, 160, 189, 163, 79, 222, 61, 149, 49, 42, 189, 
235, 180, 173, 61, 133, 209, 0, 190, 20, 163, 121, 61, 
160, 107, 196, 61, 112, 10, 69, 61, 57, 152, 22, 62, 
198, 109, 13, 62, 60, 124, 4, 190, 249, 172, 135, 61, 
113, 90, 220, 189, 99, 164, 2, 189, 2, 203, 15, 190, 
132, 225, 136, 189, 12, 26, 37, 189, 134, 206, 18, 62, 
99, 42, 199, 60, 7, 140, 228, 189, 72, 86, 81, 188, 
35, 148, 184, 189, 146, 222, 237, 61, 158, 61, 206, 60, 
1, 178, 2, 189, 21, 143, 94, 189, 78, 84, 90, 61, 
211, 216, 245, 60, 17, 222, 118, 189, 104, 229, 155, 188, 
85, 238, 16, 62, 113, 170, 110, 61, 79, 92, 240, 189, 
202, 131, 15, 62, 178, 248, 233, 61, 192, 174, 27, 190, 
218, 49, 210, 61, 125, 9, 36, 61, 32, 81, 199, 60, 
9, 225, 157, 61, 168, 132, 96, 61, 88, 53, 235, 189, 
29, 226, 211, 189, 185, 231, 129, 189, 77, 193, 41, 61, 
90, 153, 7, 190, 103, 188, 71, 189, 124, 145, 173, 60, 
136, 120, 55, 189, 143, 172, 4, 62, 108, 89, 1, 189, 
105, 126, 36, 188, 83, 130, 26, 190, 70, 173, 66, 61, 
252, 130, 138, 61, 154, 61, 165, 61, 184, 7, 244, 189, 
18, 96, 111, 189, 164, 81, 190, 189, 13, 1, 7, 190, 
90, 50, 226, 188, 144, 41, 99, 61, 65, 125, 46, 189, 
210, 188, 109, 188, 76, 152, 219, 58, 44, 24, 151, 60, 
36, 100, 189, 61, 125, 77, 83, 61, 19, 238, 207, 61, 
222, 136, 18, 189, 124, 244, 173, 61, 84, 162, 130, 189, 
208, 201, 49, 188, 39, 20, 15, 189, 99, 176, 42, 61, 
196, 36, 191, 189, 231, 192, 255, 189, 137, 71, 101, 189, 
52, 177, 4, 190, 192, 221, 132, 189, 219, 50, 171, 189, 
248, 19, 61, 189, 213, 86, 149, 61, 204, 191, 3, 190, 
163, 104, 208, 59, 198, 222, 129, 189, 122, 152, 15, 190, 
103, 227, 58, 62, 40, 136, 19, 190, 195, 109, 226, 61, 
229, 242, 31, 62, 52, 234, 255, 189, 6, 75, 0, 189, 
15, 29, 37, 61, 244, 239, 42, 189, 24, 97, 185, 189, 
130, 3, 0, 62, 139, 237, 112, 189, 122, 178, 140, 61, 
102, 56, 172, 189, 245, 2, 12, 190, 108, 168, 9, 189, 
200, 108, 154, 60, 14, 25, 226, 61, 164, 197, 211, 188, 
62, 194, 181, 189, 87, 84, 180, 61, 17, 72, 128, 61, 
166, 28, 230, 189, 46, 252, 45, 61, 218, 125, 24, 62, 
185, 146, 11, 62, 205, 106, 173, 189, 248, 71, 220, 56, 
190, 53, 35, 189, 119, 216, 232, 189, 212, 197, 245, 61, 
192, 138, 218, 61, 48, 240, 140, 189, 174, 57, 138, 189, 
34, 6, 189, 186, 222, 141, 142, 60, 7, 185, 245, 189, 
104, 246, 232, 189, 0, 129, 199, 61, 70, 26, 125, 57, 
202, 226, 96, 61, 80, 97, 182, 61, 10, 69, 77, 188, 
81, 211, 20, 61, 122, 109, 249, 188, 76, 40, 191, 61, 
189, 211, 179, 61, 37, 48, 249, 187, 137, 136, 87, 187, 
11, 174, 27, 62, 203, 140, 160, 189, 85, 183, 169, 188, 
227, 33, 210, 60, 194, 143, 10, 61, 253, 175, 239, 188, 
90, 115, 210, 189, 205, 187, 195, 189, 206, 145, 233, 60, 
124, 207, 167, 189, 209, 21, 198, 60, 177, 115, 0, 61, 
202, 15, 11, 61, 188, 197, 231, 61, 156, 0, 223, 61, 
10, 61, 195, 189, 188, 21, 38, 189, 239, 54, 19, 61, 
116, 197, 239, 189, 174, 178, 163, 61, 39, 162, 88, 61, 
226, 4, 146, 59, 5, 62, 64, 189, 141, 186, 87, 61, 
87, 109, 191, 61, 37, 187, 232, 61, 191, 44, 179, 189, 
169, 142, 164, 189, 108, 21, 192, 61, 29, 140, 161, 188, 
248, 55, 6, 62, 125, 201, 14, 190, 14, 171, 208, 61, 
67, 200, 88, 61, 35, 192, 138, 189, 199, 120, 16, 62, 
21, 152, 95, 59, 107, 181, 42, 190, 36, 113, 72, 189, 
58, 194, 196, 61, 174, 193, 36, 190, 24, 167, 121, 61, 
231, 145, 27, 62, 37, 88, 60, 61, 241, 70, 93, 189, 
29, 239, 67, 189, 93, 182, 38, 189, 169, 124, 230, 187, 
64, 86, 145, 187, 3, 158, 177, 187, 110, 236, 43, 189, 
78, 83, 143, 189, 214, 122, 159, 61, 197, 241, 160, 189, 
228, 166, 125, 188, 118, 198, 164, 189, 192, 46, 161, 61, 
228, 7, 131, 61, 136, 86, 142, 61, 53, 81, 226, 189, 
238, 206, 106, 187, 48, 25, 12, 61, 74, 24, 50, 189, 
218, 218, 186, 189, 55, 38, 147, 61, 176, 100, 51, 190, 
186, 51, 162, 60, 175, 230, 203, 189, 63, 26, 136, 61, 
173, 34, 109, 189, 229, 91, 211, 61, 192, 4, 190, 189, 
149, 184, 39, 61, 56, 43, 205, 61, 141, 2, 5, 60, 
111, 84, 0, 190, 75, 135, 147, 61, 29, 24, 194, 189, 
147, 208, 177, 60, 72, 105, 188, 61, 182, 234, 244, 189, 
101, 220, 252, 189, 198, 174, 241, 61, 195, 253, 83, 189, 
241, 204, 11, 190, 215, 156, 217, 61, 142, 54, 96, 61, 
8, 21, 22, 190, 236, 158, 74, 61, 124, 47, 4, 190, 
239, 11, 179, 189, 210, 33, 169, 60, 13, 107, 222, 189, 
191, 160, 222, 59, 158, 185, 181, 189, 151, 22, 23, 189, 
228, 11, 72, 58, 38, 50, 28, 61, 152, 38, 131, 189, 
226, 83, 20, 189, 44, 180, 98, 60, 0, 74, 215, 59, 
156, 209, 19, 190, 43, 129, 83, 61, 188, 178, 222, 189, 
170, 17, 249, 188, 118, 168, 0, 190, 159, 163, 82, 189, 
230, 94, 62, 190, 201, 167, 138, 59, 9, 95, 211, 61, 
112, 114, 169, 61, 36, 240, 188, 188, 102, 100, 241, 61, 
136, 186, 70, 61, 90, 235, 101, 60, 67, 26, 145, 189, 
69, 137, 5, 188, 81, 86, 144, 189, 209, 9, 123, 61, 
219, 137, 75, 189, 70, 217, 238, 60, 231, 56, 5, 60, 
212, 19, 12, 62, 243, 10, 86, 60, 56, 237, 71, 190, 
232, 194, 241, 61, 109, 166, 239, 189, 124, 39, 2, 190, 
145, 98, 8, 62, 70, 128, 248, 187, 134, 63, 30, 190, 
238, 191, 128, 188, 83, 5, 157, 189, 200, 207, 233, 189, 
140, 209, 81, 61, 242, 115, 220, 189, 35, 178, 63, 189, 
35, 253, 63, 59, 155, 185, 45, 61, 163, 119, 192, 189, 
154, 123, 183, 61, 200, 247, 68, 61, 179, 96, 207, 61, 
221, 191, 231, 61, 222, 208, 209, 61, 8, 63, 72, 189, 
147, 217, 66, 190, 21, 23, 13, 190, 99, 191, 183, 189, 
178, 184, 18, 190, 198, 234, 58, 189, 88, 100, 2, 61, 
46, 14, 250, 61, 141, 186, 44, 61, 53, 219, 136, 189, 
241, 23, 162, 188, 53, 173, 128, 189, 142, 38, 17, 62, 
254, 107, 220, 186, 166, 94, 132, 189, 89, 192, 102, 189, 
230, 183, 75, 61, 14, 183, 86, 59, 226, 27, 2, 62, 
43, 123, 173, 61, 16, 218, 109, 189, 163, 237, 2, 62, 
171, 127, 4, 190, 77, 41, 13, 190, 188, 117, 98, 61, 
66, 134, 18, 62, 123, 25, 34, 190, 68, 16, 83, 189, 
179, 228, 26, 189, 78, 87, 165, 61, 146, 232, 152, 189, 
3, 181, 241, 189, 112, 160, 212, 189, 239, 252, 27, 188, 
222, 174, 214, 61, 142, 247, 103, 188, 243, 245, 241, 61, 
171, 12, 46, 61, 106, 21, 213, 61, 29, 83, 91, 61, 
156, 196, 139, 61, 202, 255, 53, 61, 188, 117, 104, 188, 
157, 171, 118, 61, 201, 124, 147, 59, 215, 63, 15, 190, 
210, 173, 48, 62, 172, 78, 131, 60, 242, 132, 154, 60, 
133, 17, 121, 189, 133, 145, 99, 61, 62, 66, 160, 61, 
165, 131, 185, 188, 243, 5, 128, 189, 14, 140, 153, 189, 
11, 105, 10, 62, 88, 144, 62, 61, 239, 186, 214, 60, 
82, 163, 223, 189, 174, 179, 146, 61, 57, 91, 150, 61, 
84, 248, 20, 190, 214, 223, 31, 62, 99, 75, 74, 190, 
0, 92, 11, 190, 182, 93, 211, 61, 0, 217, 15, 190, 
145, 209, 131, 189, 19, 151, 52, 61, 24, 129, 194, 61, 
68, 126, 2, 189, 247, 51, 2, 189, 254, 18, 175, 188, 
13, 91, 192, 188, 176, 58, 236, 61, 203, 12, 148, 61, 
111, 163, 27, 190, 41, 134, 20, 62, 121, 177, 232, 61, 
223, 36, 21, 190, 11, 142, 239, 187, 226, 165, 8, 190, 
121, 142, 133, 189, 104, 169, 143, 61, 118, 164, 2, 62, 
127, 225, 199, 189, 69, 52, 83, 188, 124, 62, 215, 189, 
245, 224, 26, 190, 103, 255, 136, 186, 180, 33, 30, 190, 
210, 254, 205, 61, 240, 34, 68, 61, 198, 1, 176, 61, 
236, 152, 1, 190, 60, 68, 19, 59, 215, 180, 156, 189, 
248, 86, 208, 188, 136, 122, 161, 61, 164, 181, 48, 189, 
232, 113, 247, 189, 41, 249, 54, 60, 200, 73, 92, 61, 
8, 213, 39, 188, 121, 188, 128, 189, 0, 52, 66, 61, 
106, 30, 19, 62, 225, 149, 227, 61, 184, 75, 6, 190, 
133, 0, 152, 189, 244, 195, 232, 189, 142, 167, 215, 61, 
198, 152, 252, 60, 197, 38, 2, 62, 24, 200, 176, 61, 
109, 220, 223, 60, 180, 244, 79, 61, 3, 196, 142, 189, 
149, 255, 110, 189, 142, 173, 79, 60, 11, 244, 135, 58, 
245, 255, 181, 189, 97, 189, 2, 189, 140, 152, 4, 61, 
253, 168, 113, 189, 160, 219, 187, 60, 111, 197, 166, 60, 
173, 88, 4, 62, 61, 119, 16, 62, 198, 152, 220, 189, 
140, 226, 243, 189, 128, 186, 26, 189, 200, 188, 134, 61, 
88, 116, 200, 189, 104, 213, 157, 61, 125, 180, 146, 61, 
87, 254, 144, 189, 192, 136, 62, 189, 217, 32, 154, 188, 
70, 145, 243, 188, 69, 191, 227, 60, 114, 127, 123, 189, 
1, 77, 148, 61, 255, 14, 3, 189, 6, 191, 225, 189, 
167, 215, 177, 189, 212, 83, 248, 61, 53, 201, 12, 190, 
127, 63, 27, 190, 220, 72, 124, 189, 148, 223, 152, 189, 
178, 155, 7, 190, 52, 122, 67, 62, 13, 175, 15, 190, 
39, 122, 205, 188, 35, 88, 189, 61, 36, 185, 200, 61, 
209, 31, 213, 189, 236, 89, 41, 189, 48, 146, 162, 61, 
162, 211, 204, 61, 34, 39, 32, 190, 204, 55, 52, 61, 
111, 16, 15, 62, 141, 226, 25, 190, 5, 70, 173, 61, 
226, 50, 198, 189, 157, 211, 26, 190, 48, 217, 192, 57, 
47, 138, 17, 61, 16, 122, 13, 190, 237, 36, 109, 188, 
45, 185, 23, 190, 150, 217, 59, 61, 92, 13, 254, 189, 
216, 117, 167, 189, 26, 144, 179, 189, 15, 116, 166, 61, 
181, 48, 97, 189, 108, 163, 21, 62, 114, 3, 251, 188, 
24, 243, 200, 61, 235, 250, 202, 189, 100, 212, 87, 61, 
52, 233, 15, 189, 164, 17, 171, 61, 126, 136, 187, 188, 
125, 112, 186, 61, 103, 178, 136, 189, 172, 37, 139, 61, 
1, 101, 221, 61, 120, 36, 111, 61, 119, 112, 157, 189, 
13, 30, 101, 61, 169, 75, 53, 61, 82, 155, 179, 61, 
159, 118, 90, 60, 65, 155, 173, 189, 97, 55, 126, 189, 
101, 27, 176, 187, 5, 92, 156, 187, 40, 250, 23, 62, 
168, 227, 252, 61, 156, 75, 106, 60, 107, 163, 120, 61, 
168, 110, 31, 189, 240, 96, 77, 189, 159, 188, 15, 190, 
172, 112, 22, 189, 253, 128, 42, 189, 142, 42, 181, 60, 
80, 247, 18, 61, 176, 43, 147, 61, 103, 14, 171, 189, 
89, 238, 227, 61, 225, 69, 78, 59, 201, 197, 44, 190, 
183, 167, 16, 190, 112, 73, 112, 188, 249, 191, 229, 189, 
201, 128, 242, 61, 200, 212, 15, 62, 60, 204, 21, 188, 
141, 33, 23, 190, 8, 14, 51, 189, 82, 131, 8, 187, 
153, 180, 139, 61, 217, 235, 5, 61, 254, 157, 90, 188, 
93, 107, 217, 189, 227, 197, 132, 189, 145, 33, 154, 60, 
13, 105, 240, 61, 254, 110, 213, 61, 188, 88, 126, 189, 
135, 8, 195, 61, 188, 252, 234, 189, 169, 66, 254, 183, 
174, 50, 139, 189, 234, 82, 29, 190, 85, 207, 129, 185, 
228, 208, 129, 189, 154, 239, 254, 189, 42, 131, 248, 189, 
38, 178, 135, 61, 32, 69, 45, 190, 138, 16, 197, 189, 
207, 145, 248, 61, 166, 7, 54, 189, 41, 44, 236, 60, 
214, 134, 243, 189, 119, 206, 6, 61, 34, 168, 203, 188, 
137, 224, 114, 188, 164, 68, 20, 189, 63, 208, 180, 189, 
235, 5, 1, 62, 167, 8, 20, 190, 62, 49, 12, 61, 
158, 68, 148, 189, 86, 244, 153, 189, 132, 223, 239, 60, 
210, 122, 11, 190, 197, 148, 121, 61, 148, 231, 12, 190, 
94, 72, 93, 61, 215, 253, 187, 61, 252, 57, 140, 61, 
99, 105, 213, 189, 132, 45, 145, 189, 38, 55, 224, 60, 
158, 110, 112, 61, 229, 167, 93, 187, 225, 228, 72, 189, 
179, 226, 39, 60, 116, 194, 219, 61, 124, 125, 185, 61, 
105, 209, 6, 190, 182, 239, 133, 61, 130, 140, 161, 187, 
110, 152, 10, 60, 113, 126, 96, 189, 139, 66, 6, 190, 
85, 198, 3, 190, 234, 179, 230, 61, 192, 196, 82, 61, 
39, 140, 132, 189, 163, 31, 185, 61, 248, 185, 24, 190, 
205, 49, 57, 61, 123, 117, 31, 189, 66, 89, 164, 60, 
90, 2, 15, 62, 118, 255, 58, 188, 94, 74, 7, 60, 
120, 103, 136, 189, 227, 130, 143, 189, 224, 13, 104, 60, 
170, 18, 237, 60, 195, 34, 212, 189, 128, 130, 231, 61, 
224, 200, 200, 60, 131, 196, 55, 189, 135, 121, 197, 58, 
97, 161, 36, 61, 173, 24, 114, 189, 41, 35, 222, 189, 
55, 193, 223, 189, 112, 25, 137, 61, 244, 246, 155, 189, 
170, 81, 18, 190, 46, 124, 199, 61, 16, 109, 93, 61, 
142, 179, 13, 62, 180, 94, 36, 190, 179, 253, 24, 190, 
136, 179, 58, 190, 186, 153, 191, 189, 240, 20, 7, 61, 
49, 81, 234, 189, 125, 104, 232, 189, 65, 68, 46, 189, 
201, 186, 136, 188, 110, 83, 234, 59, 99, 87, 191, 189, 
224, 203, 78, 61, 186, 91, 159, 60, 199, 61, 0, 62, 
97, 103, 147, 189, 26, 252, 212, 189, 85, 192, 56, 188, 
8, 226, 163, 61, 237, 44, 31, 190, 94, 3, 211, 189, 
147, 170, 56, 190, 78, 18, 187, 188, 232, 221, 244, 189, 
187, 252, 153, 60, 102, 110, 18, 190, 87, 156, 204, 61, 
146, 195, 128, 189, 94, 204, 248, 61, 104, 141, 226, 60, 
211, 240, 14, 190, 5, 235, 130, 189, 252, 248, 51, 189, 
122, 218, 26, 190, 120, 108, 25, 61, 96, 250, 27, 190, 
208, 47, 97, 60, 217, 36, 2, 62, 169, 112, 29, 190, 
162, 51, 102, 59, 194, 84, 7, 190, 148, 152, 160, 61, 
141, 135, 154, 189, 215, 35, 212, 189, 121, 194, 91, 187, 
55, 114, 10, 189, 241, 245, 164, 60, 67, 12, 13, 60, 
145, 5, 100, 61, 128, 102, 254, 60, 184, 215, 159, 60, 
188, 128, 243, 61, 132, 211, 58, 189, 210, 171, 244, 189, 
211, 200, 136, 59, 41, 164, 13, 61, 20, 229, 174, 189, 
153, 78, 27, 61, 25, 0, 243, 188, 18, 58, 193, 189, 
142, 236, 69, 187, 113, 226, 144, 189, 214, 19, 242, 189, 
179, 10, 11, 190, 233, 19, 128, 189, 55, 88, 117, 61, 
124, 187, 116, 59, 72, 168, 191, 189, 38, 10, 145, 61, 
116, 150, 76, 61, 209, 8, 239, 188, 37, 131, 182, 61, 
124, 117, 78, 189, 251, 217, 154, 189, 87, 225, 22, 190, 
16, 219, 18, 60, 184, 102, 136, 189, 238, 200, 57, 187, 
140, 171, 112, 61, 160, 171, 159, 61, 130, 17, 67, 61, 
4, 139, 13, 190, 243, 160, 44, 190, 124, 24, 48, 190, 
64, 125, 78, 187, 250, 93, 243, 61, 233, 182, 140, 189, 
252, 119, 247, 189, 5, 140, 80, 189, 101, 231, 186, 59, 
17, 197, 99, 61, 120, 172, 165, 188, 140, 195, 150, 189, 
145, 170, 184, 189, 67, 146, 7, 190, 43, 221, 0, 190, 
195, 255, 188, 60, 82, 194, 170, 189, 38, 8, 191, 188, 
178, 244, 49, 190, 46, 233, 144, 61, 32, 188, 24, 60, 
58, 34, 61, 61, 136, 113, 44, 188, 250, 206, 243, 188, 
119, 146, 196, 61, 209, 53, 8, 190, 6, 106, 32, 189, 
182, 92, 212, 189, 82, 53, 15, 62, 176, 117, 30, 189, 
253, 33, 155, 61, 234, 147, 146, 188, 98, 103, 162, 61, 
246, 210, 104, 61, 81, 201, 199, 61, 60, 52, 117, 189, 
85, 231, 80, 61, 171, 80, 14, 61, 210, 130, 208, 61, 
79, 157, 211, 61, 181, 21, 5, 190, 92, 238, 231, 61, 
22, 34, 231, 61, 146, 37, 206, 59, 210, 240, 191, 61, 
205, 242, 196, 61, 205, 142, 188, 61, 238, 253, 132, 61, 
253, 0, 156, 189, 41, 167, 10, 62, 242, 42, 202, 55, 
60, 159, 202, 61, 54, 125, 199, 187, 232, 184, 235, 61, 
254, 201, 9, 62, 209, 127, 171, 59, 133, 79, 49, 190, 
92, 11, 29, 189, 184, 25, 24, 62, 58, 219, 181, 189, 
197, 145, 230, 61, 19, 188, 250, 61, 208, 75, 75, 189, 
89, 82, 20, 190, 190, 205, 191, 189, 20, 96, 47, 61, 
56, 46, 78, 62, 189, 127, 8, 62, 54, 102, 174, 61, 
163, 185, 118, 189, 206, 33, 39, 189, 203, 144, 19, 62, 
205, 147, 19, 62, 168, 13, 108, 61, 113, 117, 80, 60, 
219, 114, 62, 190, 43, 99, 88, 189, 157, 123, 1, 190, 
109, 173, 81, 189, 141, 217, 161, 61, 243, 187, 16, 190, 
175, 173, 163, 189, 209, 48, 1, 190, 22, 182, 4, 62, 
210, 41, 53, 187, 50, 204, 13, 62, 185, 248, 195, 189, 
10, 204, 244, 189, 204, 25, 196, 189, 220, 32, 6, 62, 
59, 252, 18, 61, 206, 31, 54, 61, 69, 202, 24, 190, 
201, 12, 8, 62, 132, 138, 239, 61, 47, 177, 200, 189, 
131, 231, 76, 188, 77, 61, 130, 61, 98, 90, 9, 62, 
129, 143, 166, 60, 151, 219, 223, 189, 244, 183, 233, 189, 
196, 120, 245, 186, 149, 68, 32, 61, 233, 86, 91, 189, 
102, 163, 148, 188, 73, 144, 0, 62, 5, 247, 161, 61, 
74, 226, 72, 189, 111, 35, 35, 61, 196, 191, 171, 188, 
17, 150, 41, 61, 186, 69, 91, 190, 109, 147, 55, 61, 
95, 184, 138, 188, 76, 42, 8, 190, 183, 90, 37, 190, 
51, 16, 77, 61, 12, 128, 106, 61, 3, 237, 143, 61, 
249, 235, 34, 190, 118, 65, 143, 189, 247, 4, 109, 61, 
22, 35, 63, 61, 82, 0, 225, 61, 167, 197, 225, 60, 
216, 177, 118, 61, 89, 23, 176, 188, 164, 221, 232, 61, 
241, 17, 202, 61, 163, 116, 241, 188, 89, 58, 21, 189, 
157, 70, 209, 61, 184, 58, 92, 190, 183, 141, 13, 61, 
22, 135, 53, 190, 133, 121, 124, 189, 254, 25, 91, 189, 
151, 110, 149, 61, 149, 97, 36, 62, 248, 163, 20, 187, 
234, 78, 214, 188, 99, 40, 135, 61, 171, 249, 219, 61, 
187, 119, 39, 61, 36, 125, 243, 60, 80, 227, 4, 188, 
187, 1, 161, 189, 35, 10, 221, 189, 55, 38, 144, 189, 
72, 48, 20, 62, 198, 105, 219, 60, 127, 190, 17, 62, 
109, 142, 251, 188, 96, 130, 20, 186, 238, 102, 69, 61, 
111, 87, 173, 188, 126, 76, 106, 188, 78, 248, 235, 189, 
40, 127, 155, 187, 0, 51, 187, 61, 48, 127, 14, 62, 
96, 141, 56, 189, 132, 23, 202, 188, 49, 47, 0, 62, 
110, 154, 28, 190, 115, 35, 63, 62, 82, 175, 144, 61, 
196, 120, 1, 190, 117, 138, 35, 187, 225, 60, 109, 189, 
237, 175, 177, 187, 212, 241, 59, 189, 27, 109, 211, 61, 
33, 43, 108, 57, 71, 32, 19, 190, 113, 252, 129, 189, 
192, 97, 182, 189, 16, 87, 224, 61, 78, 124, 203, 189, 
9, 244, 175, 189, 96, 12, 3, 190, 89, 221, 238, 61, 
101, 89, 175, 61, 104, 7, 23, 188, 149, 154, 87, 61, 
30, 132, 147, 189, 182, 117, 16, 189, 226, 252, 18, 62, 
110, 209, 231, 61, 96, 35, 83, 189, 5, 75, 68, 61, 
72, 141, 130, 60, 28, 86, 26, 59, 220, 25, 255, 189, 
210, 250, 30, 61, 152, 121, 184, 60, 73, 98, 152, 60, 
162, 17, 7, 189, 228, 33, 183, 189, 224, 151, 237, 189, 
112, 133, 249, 61, 90, 140, 194, 61, 134, 53, 239, 189, 
62, 243, 185, 189, 186, 157, 165, 189, 183, 159, 234, 61, 
159, 6, 231, 189, 70, 86, 154, 189, 248, 80, 0, 190, 
221, 124, 163, 61, 203, 136, 231, 61, 145, 191, 240, 61, 
177, 194, 18, 189, 226, 154, 222, 61, 133, 6, 6, 62, 
18, 119, 169, 189, 8, 253, 174, 61, 52, 227, 198, 189, 
87, 205, 140, 189, 134, 138, 247, 61, 159, 149, 26, 189, 
126, 137, 21, 60, 184, 136, 99, 62, 43, 173, 39, 188, 
5, 31, 132, 188, 139, 42, 42, 61, 59, 109, 39, 62, 
173, 139, 163, 61, 187, 184, 188, 188, 3, 143, 32, 188, 
162, 123, 80, 62, 80, 118, 144, 189, 203, 198, 177, 61, 
172, 221, 197, 61, 24, 35, 42, 189, 138, 241, 194, 61, 
45, 50, 164, 59, 159, 128, 239, 60, 165, 8, 129, 186, 
133, 182, 28, 190, 181, 106, 87, 189, 126, 179, 229, 61, 
16, 36, 164, 189, 82, 162, 49, 188, 212, 123, 245, 189, 
254, 37, 132, 189, 163, 198, 208, 189, 153, 93, 186, 187, 
122, 251, 230, 186, 193, 69, 168, 188, 237, 59, 93, 61, 
31, 76, 81, 60, 138, 228, 210, 61, 215, 151, 25, 189, 
4, 37, 196, 60, 60, 199, 125, 60, 108, 208, 210, 189, 
141, 36, 101, 61, 233, 51, 72, 61, 36, 139, 32, 190, 
130, 246, 23, 62, 40, 193, 149, 189, 167, 113, 65, 61, 
82, 250, 8, 190, 171, 183, 147, 186, 46, 134, 75, 189, 
134, 202, 86, 189, 109, 216, 76, 189, 100, 230, 52, 190, 
191, 230, 58, 190, 136, 55, 32, 61, 171, 54, 217, 61, 
98, 186, 11, 190, 218, 43, 232, 188, 157, 166, 29, 189, 
165, 151, 88, 59, 165, 27, 45, 190, 17, 55, 4, 190, 
174, 41, 138, 189, 5, 68, 218, 189, 90, 143, 67, 190, 
90, 80, 226, 61, 18, 223, 18, 190, 73, 110, 52, 60, 
182, 253, 152, 61, 115, 2, 4, 61, 190, 220, 29, 186, 
205, 66, 19, 189, 190, 74, 249, 188, 42, 176, 133, 189, 
0, 113, 50, 62, 249, 161, 29, 188, 9, 184, 213, 61, 
108, 132, 11, 189, 208, 143, 238, 189, 232, 193, 254, 189, 
249, 69, 218, 187, 157, 27, 244, 61, 186, 36, 154, 61, 
42, 237, 10, 190, 39, 164, 18, 188, 243, 33, 17, 189, 
192, 60, 187, 189, 226, 1, 241, 188, 95, 123, 217, 189, 
104, 174, 65, 61, 168, 17, 224, 189, 174, 223, 52, 62, 
33, 55, 143, 189, 170, 0, 24, 190, 230, 250, 32, 190, 
89, 7, 156, 60, 94, 188, 49, 190, 234, 158, 201, 61, 
66, 18, 33, 190, 75, 162, 121, 62, 230, 165, 230, 61, 
131, 201, 158, 189, 191, 74, 252, 61, 41, 5, 236, 61, 
190, 200, 207, 189, 226, 82, 137, 189, 215, 115, 144, 189, 
126, 164, 28, 61, 253, 236, 81, 60, 180, 208, 219, 60, 
254, 173, 12, 62, 60, 203, 14, 190, 104, 44, 115, 189, 
128, 241, 178, 189, 55, 83, 185, 189, 81, 121, 130, 60, 
82, 94, 16, 190, 49, 204, 136, 188, 99, 2, 244, 189, 
18, 24, 130, 61, 244, 27, 35, 189, 46, 153, 234, 189, 
17, 220, 170, 61, 98, 205, 48, 62, 171, 154, 137, 189, 
85, 151, 189, 61, 214, 243, 236, 60, 17, 40, 56, 189, 
26, 67, 48, 190, 72, 45, 126, 189, 22, 98, 194, 60, 
207, 144, 126, 189, 183, 26, 177, 189, 25, 64, 192, 61, 
242, 64, 112, 61, 103, 79, 159, 61, 231, 70, 107, 188, 
63, 202, 180, 60, 149, 201, 94, 62, 41, 204, 143, 60, 
135, 157, 158, 60, 76, 248, 7, 62, 134, 111, 67, 62, 
222, 230, 114, 59, 237, 194, 225, 61, 88, 241, 132, 189, 
39, 29, 194, 189, 212, 244, 79, 189, 88, 89, 197, 189, 
1, 182, 89, 190, 7, 26, 243, 60, 190, 107, 151, 186, 
125, 92, 1, 61, 210, 150, 178, 189, 94, 30, 138, 189, 
72, 170, 81, 190, 242, 222, 233, 189, 223, 167, 21, 61, 
101, 0, 106, 61, 116, 53, 143, 189, 182, 180, 12, 189, 
104, 146, 42, 189, 213, 57, 166, 61, 32, 237, 33, 62, 
26, 163, 156, 188, 37, 217, 242, 61, 34, 9, 17, 190, 
27, 210, 185, 188, 180, 19, 29, 62, 231, 82, 157, 61, 
70, 0, 16, 62, 179, 223, 134, 62, 7, 48, 41, 62, 
242, 20, 115, 189, 154, 155, 152, 188, 133, 56, 37, 189, 
85, 100, 59, 62, 112, 202, 15, 190, 196, 153, 245, 61, 
148, 207, 180, 61, 129, 211, 155, 188, 88, 137, 253, 188, 
248, 13, 231, 61, 103, 243, 39, 190, 122, 123, 67, 190, 
71, 85, 128, 61, 149, 64, 198, 189, 173, 74, 52, 61, 
110, 173, 58, 189, 0, 16, 188, 60, 41, 101, 5, 62, 
68, 48, 76, 189, 149, 13, 96, 61, 195, 41, 4, 62, 
120, 199, 188, 61, 57, 108, 196, 61, 81, 83, 253, 189, 
47, 74, 204, 188, 198, 187, 27, 190, 34, 237, 240, 61, 
2, 21, 16, 188, 204, 139, 90, 62, 154, 64, 209, 61, 
151, 254, 130, 190, 166, 67, 233, 60, 191, 72, 69, 188, 
46, 235, 69, 61, 192, 235, 190, 61, 110, 106, 19, 61, 
224, 108, 214, 61, 53, 139, 86, 188, 67, 102, 215, 61, 
208, 84, 242, 188, 16, 140, 74, 61, 194, 211, 23, 62, 
202, 218, 189, 61, 157, 144, 160, 61, 212, 136, 111, 189, 
81, 54, 69, 189, 34, 221, 132, 189, 193, 204, 203, 61, 
90, 55, 108, 61, 49, 152, 25, 189, 126, 223, 160, 61, 
20, 61, 77, 187, 224, 205, 229, 189, 36, 236, 4, 190, 
58, 122, 44, 190, 220, 55, 2, 62, 194, 172, 222, 189, 
62, 195, 27, 62, 158, 145, 8, 62, 63, 179, 12, 190, 
142, 48, 86, 189, 15, 17, 165, 189, 116, 194, 232, 189, 
69, 102, 140, 61, 29, 76, 146, 61, 96, 202, 27, 62, 
164, 191, 35, 61, 123, 126, 129, 61, 147, 78, 80, 61, 
190, 253, 240, 61, 105, 207, 122, 61, 223, 114, 90, 189, 
241, 196, 34, 62, 109, 178, 12, 190, 58, 187, 167, 61, 
97, 89, 226, 187, 203, 91, 203, 189, 142, 212, 178, 61, 
253, 135, 118, 61, 10, 139, 146, 189, 140, 178, 196, 61, 
55, 203, 126, 61, 83, 157, 235, 187, 96, 15, 17, 62, 
177, 53, 232, 61, 12, 110, 138, 61, 233, 68, 191, 59, 
102, 26, 249, 61, 158, 142, 138, 189, 38, 33, 149, 59, 
170, 87, 219, 61, 46, 200, 69, 61, 33, 235, 11, 190, 
13, 33, 18, 61, 85, 45, 161, 189, 208, 16, 232, 60, 
244, 167, 115, 59, 19, 160, 27, 61, 155, 210, 32, 189, 
30, 201, 216, 189, 214, 216, 228, 61, 171, 102, 36, 189, 
218, 160, 143, 61, 1, 210, 221, 189, 253, 22, 89, 61, 
2, 87, 121, 61, 182, 247, 139, 61, 218, 224, 98, 59, 
118, 226, 167, 61, 244, 60, 44, 62, 29, 115, 71, 188, 
150, 160, 252, 188, 248, 168, 188, 187, 210, 186, 15, 61, 
214, 116, 14, 189, 78, 161, 222, 189, 173, 127, 218, 60, 
93, 62, 21, 62, 218, 48, 20, 61, 28, 224, 61, 189, 
214, 210, 218, 188, 66, 74, 2, 61, 120, 54, 155, 61, 
224, 231, 82, 60, 183, 63, 22, 190, 26, 192, 14, 62, 
202, 139, 64, 60, 218, 119, 21, 62, 176, 204, 207, 189, 
181, 203, 144, 189, 47, 232, 27, 189, 136, 88, 93, 61, 
123, 11, 53, 188, 145, 75, 252, 189, 68, 249, 112, 60, 
193, 57, 10, 61, 70, 220, 253, 61, 8, 233, 3, 190, 
244, 77, 101, 61, 113, 4, 215, 61, 157, 176, 140, 189, 
250, 201, 195, 60, 211, 147, 17, 189, 0, 135, 33, 190, 
80, 253, 218, 189, 253, 113, 187, 189, 1, 51, 147, 61, 
201, 161, 227, 189, 10, 2, 33, 62, 241, 83, 250, 61, 
126, 77, 103, 61, 26, 246, 218, 59, 135, 93, 189, 61, 
150, 189, 211, 189, 41, 161, 214, 188, 33, 132, 10, 189, 
221, 50, 214, 59, 62, 47, 150, 59, 10, 244, 102, 189, 
26, 28, 75, 61, 97, 191, 241, 188, 70, 70, 8, 190, 
220, 53, 248, 61, 26, 3, 85, 59, 61, 90, 160, 61, 
206, 135, 210, 60, 221, 188, 177, 188, 3, 178, 238, 61, 
217, 126, 31, 187, 144, 126, 170, 189, 86, 39, 145, 58, 
163, 69, 152, 61, 152, 247, 1, 62, 219, 195, 229, 188, 
66, 141, 16, 62, 228, 90, 159, 189, 7, 16, 142, 189, 
239, 250, 253, 185, 29, 123, 244, 60, 235, 201, 82, 189, 
99, 46, 221, 61, 3, 77, 174, 61, 133, 153, 208, 61, 
125, 99, 195, 188, 249, 240, 4, 61, 73, 110, 94, 187, 
249, 166, 238, 189, 83, 216, 129, 61, 79, 38, 93, 61, 
156, 137, 103, 188, 68, 186, 207, 61, 241, 102, 19, 62, 
31, 149, 165, 59, 90, 57, 120, 62, 244, 159, 189, 189, 
118, 76, 149, 188, 160, 49, 47, 61, 142, 30, 162, 189, 
185, 120, 16, 61, 112, 8, 24, 62, 5, 194, 7, 61, 
246, 156, 165, 60, 215, 129, 21, 62, 104, 210, 153, 189, 
93, 35, 248, 61, 248, 129, 201, 61, 182, 121, 88, 61, 
216, 64, 191, 61, 180, 59, 37, 59, 219, 139, 246, 188, 
231, 213, 102, 61, 156, 137, 182, 189, 194, 183, 191, 189, 
207, 2, 166, 189, 223, 117, 208, 189, 69, 175, 138, 189, 
150, 129, 133, 61, 195, 243, 178, 189, 216, 252, 206, 189, 
197, 23, 132, 189, 34, 239, 77, 188, 104, 122, 137, 61, 
92, 249, 105, 190, 92, 208, 45, 61, 223, 94, 239, 188, 
165, 51, 55, 61, 174, 115, 51, 61, 112, 240, 151, 59, 
148, 216, 191, 61, 5, 63, 248, 61, 118, 228, 61, 190, 
160, 207, 14, 59, 56, 78, 69, 189, 208, 205, 8, 190, 
19, 189, 6, 190, 119, 190, 57, 61, 180, 226, 162, 189, 
70, 160, 197, 189, 158, 124, 6, 189, 56, 183, 6, 189, 
110, 86, 23, 190, 202, 9, 175, 188, 118, 60, 234, 61, 
93, 233, 144, 189, 103, 234, 49, 190, 104, 139, 186, 189, 
58, 72, 223, 61, 67, 137, 166, 189, 160, 44, 178, 61, 
78, 128, 12, 190, 78, 231, 152, 61, 153, 52, 3, 62, 
86, 75, 26, 62, 113, 144, 180, 61, 60, 93, 99, 189, 
146, 83, 143, 61, 143, 49, 29, 62, 194, 153, 147, 59, 
123, 198, 155, 60, 58, 224, 174, 60, 177, 14, 60, 61, 
92, 227, 208, 61, 189, 225, 160, 60, 90, 12, 84, 60, 
126, 150, 11, 189, 220, 129, 30, 62, 54, 126, 192, 189, 
121, 194, 38, 190, 240, 192, 137, 188, 229, 26, 231, 61, 
55, 165, 1, 188, 246, 71, 112, 189, 41, 40, 136, 189, 
100, 45, 123, 61, 232, 102, 130, 61, 51, 77, 81, 184, 
190, 95, 107, 61, 192, 168, 163, 61, 42, 54, 58, 62, 
54, 216, 31, 189, 244, 191, 1, 62, 25, 153, 64, 190, 
180, 130, 240, 186, 200, 216, 130, 61, 109, 209, 101, 61, 
166, 190, 65, 188, 171, 20, 92, 62, 221, 247, 176, 189, 
193, 221, 58, 190, 116, 2, 48, 62, 75, 27, 27, 190, 
215, 6, 30, 190, 20, 68, 239, 61, 148, 59, 3, 62, 
128, 10, 32, 62, 87, 86, 195, 189, 234, 85, 70, 190, 
116, 140, 15, 190, 76, 211, 200, 189, 36, 132, 140, 59, 
66, 72, 103, 189, 71, 142, 173, 188, 152, 203, 6, 62, 
182, 193, 104, 61, 144, 3, 224, 189, 190, 185, 148, 61, 
254, 150, 10, 190, 84, 183, 140, 188, 10, 60, 229, 189, 
67, 103, 46, 189, 178, 138, 25, 190, 69, 182, 14, 61, 
16, 53, 15, 190, 94, 217, 2, 190, 193, 253, 40, 189, 
185, 130, 75, 190, 252, 123, 246, 59, 187, 127, 184, 61, 
74, 186, 199, 187, 26, 183, 13, 61, 94, 201, 241, 189, 
186, 179, 219, 61, 141, 27, 196, 61, 86, 40, 89, 189, 
234, 201, 208, 61, 45, 244, 202, 189, 117, 22, 197, 189, 
92, 220, 149, 61, 142, 4, 103, 59, 129, 235, 80, 189, 
132, 202, 184, 61, 25, 101, 109, 188, 22, 49, 143, 189, 
252, 9, 202, 61, 140, 177, 208, 61, 170, 152, 18, 189, 
203, 19, 199, 189, 241, 188, 104, 61, 117, 237, 218, 187, 
92, 48, 71, 62, 58, 224, 123, 188, 206, 232, 255, 189, 
42, 129, 124, 61, 233, 114, 14, 190, 125, 41, 178, 189, 
152, 167, 134, 61, 129, 194, 183, 61, 188, 122, 64, 190, 
41, 5, 164, 188, 237, 44, 26, 190, 203, 223, 79, 59, 
199, 242, 41, 190, 185, 9, 119, 61, 145, 165, 215, 189, 
178, 102, 187, 189, 42, 96, 208, 61, 4, 208, 89, 189, 
80, 198, 9, 61, 43, 176, 152, 61, 242, 182, 9, 62, 
105, 195, 194, 188, 123, 216, 224, 61, 247, 182, 227, 189, 
59, 109, 199, 189, 219, 168, 180, 61, 244, 103, 244, 61, 
87, 163, 189, 189, 107, 186, 243, 189, 99, 121, 20, 190, 
129, 84, 152, 61, 250, 68, 16, 190, 155, 46, 34, 62, 
156, 6, 230, 61, 46, 12, 186, 61, 191, 99, 79, 189, 
36, 212, 96, 189, 46, 249, 2, 190, 222, 131, 19, 61, 
96, 220, 155, 188, 88, 221, 30, 61, 246, 8, 143, 189, 
83, 157, 66, 189, 196, 79, 146, 61, 86, 129, 214, 189, 
135, 22, 88, 61, 223, 185, 162, 61, 72, 98, 231, 189, 
15, 8, 169, 189, 81, 10, 3, 61, 6, 43, 12, 188, 
85, 162, 199, 61, 183, 251, 10, 190, 10, 189, 40, 190, 
53, 237, 228, 60, 22, 37, 61, 59, 221, 246, 22, 62, 
245, 125, 171, 60, 24, 247, 241, 61, 79, 93, 82, 190, 
191, 81, 243, 61, 170, 165, 178, 189, 177, 244, 163, 189, 
14, 9, 18, 190, 241, 30, 13, 189, 207, 207, 149, 59, 
73, 226, 8, 61, 212, 22, 13, 61, 165, 34, 137, 61, 
54, 32, 19, 190, 228, 245, 19, 61, 154, 203, 14, 190, 
85, 207, 131, 189, 7, 197, 151, 61, 17, 6, 49, 61, 
98, 21, 240, 189, 223, 103, 226, 59, 162, 198, 210, 61, 
100, 42, 61, 62, 243, 73, 177, 189, 122, 113, 132, 189, 
144, 12, 197, 60, 213, 107, 133, 61, 55, 153, 3, 190, 
70, 134, 89, 189, 42, 246, 227, 61, 216, 200, 197, 60, 
176, 206, 130, 61, 112, 219, 53, 60, 148, 24, 235, 61, 
52, 33, 214, 60, 242, 246, 29, 61, 159, 194, 34, 190, 
173, 229, 150, 189, 40, 133, 219, 189, 62, 245, 86, 190, 
190, 160, 160, 189, 167, 142, 85, 61, 162, 217, 17, 190, 
32, 213, 59, 62, 239, 207, 96, 61, 152, 229, 243, 189, 
166, 163, 0, 61, 92, 171, 236, 189, 225, 245, 189, 59, 
152, 115, 101, 62, 67, 64, 197, 189, 11, 27, 166, 61, 
10, 177, 105, 61, 153, 12, 150, 59, 132, 183, 31, 61, 
129, 52, 58, 189, 7, 222, 100, 188, 184, 116, 108, 61, 
21, 167, 95, 190, 165, 44, 197, 189, 55, 216, 206, 189, 
131, 153, 130, 61, 5, 115, 4, 189, 203, 23, 8, 61, 
123, 174, 17, 189, 188, 169, 121, 60, 137, 122, 142, 189, 
64, 152, 96, 60, 239, 86, 160, 61, 190, 168, 188, 61, 
154, 221, 84, 61, 132, 232, 102, 61, 108, 125, 160, 61, 
143, 179, 54, 190, 14, 71, 217, 189, 46, 197, 5, 60, 
230, 218, 40, 61, 237, 95, 146, 189, 239, 155, 28, 60, 
152, 173, 178, 61, 187, 231, 63, 61, 251, 2, 53, 62, 
80, 146, 113, 61, 217, 126, 10, 62, 41, 0, 20, 62, 
72, 16, 212, 61, 110, 61, 237, 61, 110, 94, 28, 190, 
38, 79, 48, 189, 141, 109, 144, 58, 179, 226, 25, 62, 
212, 163, 7, 61, 108, 209, 45, 190, 206, 103, 53, 62, 
70, 83, 217, 61, 105, 115, 106, 190, 182, 41, 153, 189, 
98, 214, 37, 60, 133, 188, 118, 61, 191, 172, 19, 190, 
193, 33, 1, 190, 22, 203, 27, 190, 43, 8, 189, 189, 
155, 38, 88, 61, 74, 141, 192, 189, 187, 71, 77, 61, 
18, 103, 20, 187, 161, 96, 26, 62, 247, 42, 225, 61, 
121, 67, 170, 61, 164, 68, 186, 61, 131, 59, 231, 61, 
86, 179, 91, 60, 24, 17, 131, 62, 174, 97, 108, 189, 
105, 146, 115, 62, 211, 187, 50, 62, 202, 33, 194, 189, 
0, 116, 47, 190, 42, 133, 160, 189, 158, 19, 243, 189, 
59, 199, 26, 190, 8, 177, 229, 189, 101, 17, 21, 62, 
88, 121, 124, 189, 136, 124, 176, 189, 207, 135, 139, 61, 
52, 246, 201, 189, 199, 73, 139, 60, 248, 211, 31, 190, 
190, 140, 14, 62, 92, 49, 243, 188, 78, 213, 148, 61, 
172, 15, 140, 189, 188, 53, 60, 62, 112, 184, 64, 61, 
32, 68, 147, 189, 177, 154, 71, 189, 249, 168, 105, 61, 
150, 55, 22, 189, 135, 80, 221, 61, 129, 190, 217, 189, 
133, 142, 198, 61, 65, 239, 135, 188, 135, 204, 42, 189, 
130, 84, 14, 61, 20, 83, 143, 61, 85, 125, 222, 61, 
123, 216, 100, 189, 245, 62, 82, 189, 221, 187, 79, 190, 
178, 20, 93, 189, 80, 188, 180, 58, 88, 30, 229, 60, 
190, 101, 99, 189, 191, 248, 15, 62, 115, 185, 79, 61, 
119, 224, 1, 62, 232, 115, 0, 190, 160, 31, 224, 189, 
221, 19, 4, 188, 234, 4, 10, 190, 92, 198, 33, 62, 
117, 36, 153, 59, 191, 98, 82, 190, 27, 198, 172, 61, 
5, 33, 142, 189, 60, 9, 210, 188, 78, 110, 125, 62, 
139, 43, 171, 188, 172, 200, 205, 188, 184, 127, 25, 62, 
65, 203, 108, 189, 99, 36, 43, 190, 106, 40, 107, 61, 
53, 186, 187, 60, 3, 4, 138, 187, 200, 242, 8, 190, 
73, 134, 82, 61, 153, 114, 155, 60, 49, 120, 107, 188, 
3, 152, 243, 61, 0, 31, 136, 60, 221, 91, 255, 188, 
209, 27, 183, 61, 120, 117, 76, 61, 35, 221, 187, 61, 
107, 158, 40, 189, 4, 144, 39, 190, 247, 135, 204, 61, 
37, 132, 144, 59, 131, 26, 83, 189, 110, 186, 190, 60, 
22, 30, 14, 190, 79, 39, 188, 61, 90, 109, 253, 188, 
217, 244, 247, 189, 174, 249, 5, 190, 153, 111, 19, 190, 
87, 38, 206, 188, 116, 40, 111, 62, 116, 223, 17, 61, 
147, 103, 14, 61, 10, 32, 106, 60, 80, 236, 186, 61, 
249, 194, 60, 190, 1, 178, 155, 61, 78, 139, 197, 189, 
255, 248, 155, 61, 66, 84, 13, 190, 9, 129, 42, 189, 
182, 45, 87, 190, 238, 150, 82, 189, 249, 49, 13, 61, 
31, 222, 232, 60, 45, 204, 250, 59, 76, 191, 66, 188, 
129, 214, 85, 190, 217, 132, 20, 62, 94, 39, 75, 189, 
81, 46, 173, 61, 136, 27, 166, 189, 134, 218, 152, 61, 
247, 112, 16, 61, 80, 201, 144, 59, 10, 117, 247, 189, 
201, 22, 156, 188, 145, 96, 107, 189, 89, 206, 98, 190, 
235, 241, 0, 62, 238, 49, 176, 61, 131, 100, 7, 62, 
169, 71, 3, 61, 100, 185, 112, 189, 15, 171, 106, 61, 
141, 142, 76, 190, 91, 165, 159, 61, 14, 107, 151, 60, 
91, 152, 203, 60, 60, 55, 8, 62, 14, 30, 20, 190, 
12, 247, 11, 62, 151, 27, 48, 62, 138, 189, 216, 61, 
94, 161, 80, 189, 71, 112, 7, 190, 107, 115, 65, 190, 
113, 48, 73, 190, 157, 155, 110, 189, 123, 106, 153, 61, 
72, 17, 204, 61, 144, 238, 48, 190, 216, 155, 225, 61, 
35, 19, 30, 62, 0, 30, 2, 62, 113, 87, 10, 190, 
250, 186, 46, 61, 56, 34, 123, 189, 221, 19, 20, 190, 
52, 119, 2, 189, 244, 145, 167, 61, 71, 19, 214, 189, 
222, 161, 250, 188, 89, 207, 186, 61, 171, 82, 231, 188, 
232, 146, 161, 189, 152, 172, 110, 60, 185, 95, 220, 59, 
119, 149, 38, 59, 77, 109, 167, 61, 124, 219, 33, 190, 
75, 49, 236, 60, 116, 238, 229, 61, 0, 214, 19, 190, 
107, 255, 135, 189, 201, 172, 52, 190, 35, 70, 169, 60, 
73, 77, 39, 62, 34, 124, 196, 189, 254, 59, 232, 61, 
0, 87, 182, 61, 204, 210, 129, 189, 223, 154, 31, 61, 
102, 156, 200, 61, 79, 209, 20, 190, 48, 200, 167, 61, 
174, 228, 169, 189, 44, 59, 2, 62, 83, 96, 19, 62, 
119, 176, 137, 61, 170, 20, 152, 61, 34, 254, 83, 61, 
20, 115, 250, 187, 251, 56, 156, 61, 70, 72, 78, 190, 
28, 211, 49, 189, 250, 105, 59, 190, 170, 246, 3, 190, 
17, 132, 113, 61, 110, 241, 251, 59, 222, 92, 45, 190, 
35, 227, 61, 62, 249, 71, 156, 61, 16, 170, 20, 62, 
97, 252, 195, 189, 72, 62, 29, 189, 42, 145, 21, 62, 
141, 223, 16, 62, 142, 7, 23, 61, 250, 120, 89, 189, 
163, 217, 56, 190, 38, 186, 133, 189, 154, 86, 1, 62, 
105, 66, 144, 61, 141, 95, 238, 188, 172, 154, 38, 190, 
228, 215, 163, 60, 3, 180, 133, 61, 232, 232, 171, 189, 
102, 174, 17, 62, 154, 209, 223, 61, 153, 73, 159, 61, 
208, 123, 75, 59, 120, 8, 20, 190, 28, 123, 71, 62, 
187, 131, 157, 57, 110, 56, 166, 189, 244, 48, 129, 61, 
102, 63, 144, 60, 201, 220, 11, 190, 110, 149, 17, 189, 
74, 97, 48, 189, 229, 215, 179, 61, 164, 67, 167, 61, 
136, 235, 66, 62, 185, 153, 226, 61, 38, 95, 180, 61, 
28, 122, 8, 190, 61, 73, 140, 188, 15, 188, 209, 189, 
208, 237, 247, 189, 246, 205, 23, 62, 150, 220, 216, 61, 
186, 83, 234, 59, 29, 194, 201, 61, 35, 77, 149, 189, 
56, 244, 64, 61, 184, 227, 36, 190, 117, 99, 226, 189, 
115, 111, 191, 190, 46, 142, 191, 189, 244, 204, 29, 61, 
6, 111, 252, 189, 156, 181, 40, 61, 251, 174, 127, 190, 
104, 188, 17, 62, 244, 54, 48, 190, 229, 204, 153, 61, 
77, 133, 148, 61, 204, 223, 18, 190, 6, 214, 47, 190, 
183, 171, 130, 61, 248, 98, 35, 189, 223, 93, 185, 61, 
191, 149, 24, 190, 141, 97, 155, 189, 201, 10, 7, 62, 
170, 56, 236, 188, 163, 199, 104, 190, 227, 239, 102, 189, 
105, 109, 29, 61, 126, 160, 43, 190, 1, 92, 28, 62, 
133, 237, 185, 189, 131, 155, 193, 61, 177, 234, 194, 61, 
191, 194, 43, 188, 63, 72, 171, 188, 152, 189, 109, 61, 
0, 81, 160, 189, 182, 101, 3, 189, 75, 166, 6, 190, 
148, 171, 98, 189, 81, 136, 71, 61, 241, 105, 202, 60, 
2, 90, 31, 190, 4, 48, 166, 59, 21, 96, 202, 61, 
228, 114, 72, 190, 71, 37, 26, 190, 216, 132, 53, 58, 
234, 250, 68, 189, 170, 165, 145, 60, 180, 19, 6, 62, 
43, 113, 75, 189, 149, 211, 10, 190, 240, 181, 236, 188, 
220, 106, 11, 190, 171, 148, 137, 190, 225, 9, 160, 188, 
155, 227, 155, 61, 19, 167, 30, 190, 150, 57, 184, 61, 
120, 211, 150, 60, 95, 103, 7, 190, 82, 248, 82, 61, 
242, 201, 4, 62, 7, 105, 83, 61, 51, 78, 239, 186, 
128, 93, 152, 189, 172, 188, 158, 188, 153, 136, 139, 60, 
207, 122, 158, 61, 144, 170, 63, 190, 1, 213, 250, 60, 
223, 113, 3, 190, 88, 252, 20, 190, 242, 239, 142, 188, 
207, 112, 25, 190, 161, 221, 179, 189, 218, 127, 229, 189, 
249, 172, 227, 61, 222, 204, 242, 59, 141, 178, 168, 61, 
108, 255, 54, 62, 42, 102, 197, 61, 88, 147, 4, 61, 
14, 153, 206, 61, 246, 74, 19, 62, 22, 113, 80, 189, 
41, 179, 167, 188, 71, 235, 131, 60, 116, 196, 158, 189, 
71, 78, 148, 61, 137, 73, 172, 189, 83, 4, 229, 61, 
135, 215, 191, 189, 244, 250, 104, 59, 2, 144, 18, 62, 
4, 234, 175, 60, 49, 11, 245, 188, 64, 79, 65, 188, 
109, 121, 165, 61, 58, 42, 7, 62, 232, 234, 172, 189, 
2, 150, 52, 189, 24, 51, 14, 62, 147, 103, 6, 190, 
130, 194, 61, 61, 216, 56, 15, 190, 90, 176, 135, 61, 
18, 21, 203, 61, 183, 197, 30, 61, 4, 42, 251, 189, 
177, 102, 12, 61, 231, 68, 13, 190, 226, 73, 47, 189, 
9, 235, 254, 61, 85, 74, 175, 188, 122, 215, 31, 62, 
0, 103, 227, 61, 249, 49, 200, 61, 14, 57, 89, 188, 
246, 20, 175, 189, 144, 47, 155, 61, 106, 107, 41, 60, 
116, 45, 92, 189, 185, 30, 46, 189, 108, 195, 62, 190, 
56, 125, 232, 188, 92, 71, 135, 189, 244, 70, 31, 62, 
45, 40, 188, 60, 26, 245, 11, 62, 59, 141, 195, 59, 
101, 151, 216, 189, 157, 192, 179, 189, 68, 85, 31, 188, 
75, 129, 176, 60, 248, 177, 57, 189, 231, 151, 132, 61, 
158, 223, 160, 189, 88, 184, 137, 61, 79, 207, 20, 190, 
94, 96, 166, 61, 131, 241, 24, 189, 34, 183, 159, 61, 
47, 133, 19, 62, 85, 12, 159, 61, 41, 232, 157, 61, 
28, 108, 32, 190, 59, 214, 21, 190, 209, 233, 158, 189, 
201, 34, 87, 188, 14, 49, 227, 189, 37, 191, 74, 189, 
237, 111, 121, 61, 45, 185, 67, 190, 37, 153, 215, 189, 
200, 88, 49, 190, 7, 7, 59, 190, 149, 14, 197, 61, 
211, 53, 3, 62, 86, 242, 37, 190, 126, 242, 17, 62, 
81, 168, 3, 61, 94, 57, 64, 189, 52, 182, 45, 59, 
105, 202, 90, 59, 108, 248, 86, 189, 151, 87, 59, 61, 
45, 13, 248, 60, 63, 104, 202, 186, 3, 117, 39, 190, 
90, 33, 19, 190, 104, 94, 158, 188, 201, 7, 9, 189, 
254, 75, 212, 189, 103, 64, 106, 61, 200, 202, 157, 189, 
203, 63, 225, 188, 231, 107, 229, 189, 158, 218, 12, 190, 
245, 32, 226, 189, 18, 118, 201, 61, 92, 73, 26, 190, 
165, 145, 243, 60, 35, 218, 203, 60, 70, 205, 100, 61, 
185, 192, 209, 60, 149, 22, 4, 61, 151, 27, 164, 189, 
228, 90, 66, 189, 117, 54, 239, 189, 217, 212, 147, 189, 
248, 140, 115, 189, 19, 188, 216, 60, 17, 38, 153, 189, 
105, 126, 227, 188, 45, 163, 66, 190, 16, 138, 82, 189, 
81, 74, 152, 61, 27, 128, 234, 189, 164, 34, 41, 190, 
194, 170, 247, 58, 44, 212, 191, 61, 59, 141, 41, 61, 
49, 179, 25, 62, 8, 123, 75, 189, 249, 231, 20, 62, 
50, 223, 208, 188, 97, 139, 18, 61, 66, 71, 149, 189, 
18, 116, 151, 189, 117, 124, 208, 189, 170, 163, 243, 189, 
194, 25, 117, 61, 114, 92, 51, 189, 86, 180, 247, 61, 
214, 163, 210, 61, 131, 73, 144, 189, 185, 74, 166, 189, 
115, 219, 170, 61, 133, 226, 77, 60, 244, 209, 159, 60, 
201, 62, 196, 61, 187, 238, 42, 61, 166, 255, 202, 189, 
237, 138, 141, 189, 131, 235, 104, 62, 26, 89, 46, 190, 
9, 226, 31, 61, 151, 26, 212, 188, 96, 128, 32, 61, 
57, 164, 11, 60, 2, 35, 14, 62, 35, 150, 183, 60, 
19, 67, 128, 60, 171, 153, 17, 190, 249, 188, 175, 188, 
91, 169, 163, 61, 199, 96, 51, 189, 33, 145, 233, 189, 
28, 23, 162, 189, 192, 137, 180, 189, 182, 63, 249, 189, 
95, 186, 133, 61, 36, 138, 62, 189, 10, 114, 194, 61, 
101, 253, 144, 188, 42, 15, 60, 62, 115, 11, 39, 188, 
177, 206, 69, 189, 38, 178, 180, 188, 113, 60, 234, 61, 
177, 245, 11, 190, 97, 192, 109, 61, 29, 120, 151, 188, 
174, 203, 53, 62, 48, 249, 131, 189, 205, 20, 17, 61, 
183, 171, 184, 60, 165, 39, 185, 189, 249, 70, 12, 190, 
203, 201, 214, 189, 232, 78, 163, 189, 176, 21, 52, 60, 
106, 252, 3, 190, 181, 196, 14, 62, 74, 140, 221, 61, 
36, 84, 23, 190, 40, 27, 182, 187, 153, 231, 192, 60, 
60, 209, 196, 61, 79, 87, 235, 60, 112, 105, 7, 62, 
64, 7, 30, 61, 182, 67, 189, 60, 251, 104, 170, 188, 
67, 198, 11, 190, 6, 8, 13, 190, 210, 107, 208, 60, 
168, 63, 232, 61, 155, 30, 236, 61, 16, 123, 75, 190, 
155, 110, 109, 189, 194, 73, 7, 189, 93, 163, 48, 190, 
19, 45, 5, 62, 227, 217, 62, 61, 88, 93, 127, 61, 
139, 205, 87, 189, 41, 229, 176, 189, 74, 56, 139, 188, 
5, 254, 185, 189, 35, 239, 173, 189, 38, 220, 27, 189, 
204, 83, 249, 189, 18, 218, 193, 189, 213, 18, 206, 189, 
21, 65, 6, 62, 110, 103, 31, 189, 250, 33, 14, 62, 
115, 98, 35, 61, 108, 42, 110, 189, 137, 161, 253, 189, 
208, 151, 213, 189, 85, 124, 11, 190, 63, 32, 54, 189, 
185, 172, 3, 62, 120, 194, 248, 60, 16, 153, 140, 189, 
234, 133, 183, 187, 177, 97, 194, 61, 131, 97, 0, 188, 
198, 203, 236, 61, 29, 95, 22, 190, 213, 86, 11, 190, 
66, 105, 12, 62, 7, 27, 73, 190, 52, 224, 216, 61, 
107, 235, 253, 189, 232, 229, 17, 61, 17, 60, 27, 189, 
133, 235, 28, 190, 198, 198, 57, 188, 164, 127, 218, 60, 
32, 30, 58, 59, 189, 213, 234, 189, 77, 38, 49, 61, 
115, 79, 224, 189, 153, 180, 205, 61, 199, 59, 186, 189, 
24, 72, 26, 62, 83, 148, 197, 189, 136, 244, 13, 190, 
194, 7, 135, 187, 17, 43, 182, 60, 243, 139, 245, 188, 
105, 164, 8, 189, 66, 30, 56, 59, 6, 193, 175, 61, 
32, 158, 192, 61, 143, 96, 156, 189, 241, 12, 173, 61, 
128, 4, 36, 190, 221, 192, 81, 189, 212, 90, 19, 62, 
254, 205, 132, 189, 78, 35, 107, 189, 73, 164, 245, 189, 
117, 71, 200, 188, 216, 154, 210, 60, 105, 124, 208, 189, 
51, 97, 168, 189, 55, 25, 153, 189, 111, 136, 179, 61, 
191, 147, 132, 189, 220, 112, 45, 189, 46, 220, 160, 189, 
15, 77, 104, 61, 95, 69, 28, 61, 183, 199, 18, 62, 
112, 113, 220, 189, 132, 96, 26, 61, 247, 172, 124, 61, 
6, 58, 95, 62, 72, 37, 168, 61, 128, 227, 29, 190, 
166, 28, 32, 189, 132, 80, 140, 59, 49, 193, 233, 189, 
92, 157, 98, 189, 38, 244, 27, 190, 77, 108, 40, 190, 
180, 219, 181, 189, 214, 173, 9, 61, 118, 85, 42, 189, 
207, 149, 13, 190, 30, 184, 247, 189, 30, 205, 60, 61, 
20, 60, 21, 187, 170, 139, 191, 189, 45, 145, 139, 61, 
221, 58, 32, 189, 162, 15, 186, 188, 185, 12, 205, 61, 
95, 191, 235, 61, 69, 129, 132, 189, 231, 104, 116, 61, 
254, 19, 200, 188, 155, 156, 185, 189, 92, 132, 174, 61, 
172, 183, 128, 188, 101, 108, 122, 189, 206, 131, 174, 61, 
147, 209, 197, 61, 9, 22, 228, 189, 55, 96, 236, 188, 
175, 46, 230, 189, 15, 194, 176, 189, 19, 144, 188, 188, 
241, 68, 0, 62, 135, 128, 146, 61, 162, 250, 247, 60, 
23, 224, 13, 190, 53, 42, 204, 61, 167, 66, 81, 189, 
64, 59, 133, 60, 175, 46, 59, 189, 180, 37, 15, 62, 
16, 14, 199, 189, 234, 162, 64, 189, 10, 193, 19, 190, 
50, 73, 44, 62, 58, 148, 156, 61, 156, 69, 46, 189, 
133, 46, 30, 189, 86, 215, 103, 189, 0, 106, 162, 61, 
57, 37, 85, 189, 158, 240, 14, 190, 136, 171, 12, 62, 
25, 252, 239, 189, 220, 85, 109, 189, 42, 226, 51, 61, 
25, 150, 190, 189, 181, 41, 248, 61, 174, 128, 174, 189, 
101, 246, 58, 190, 91, 109, 1, 189, 56, 171, 66, 61, 
202, 206, 203, 189, 132, 230, 13, 62, 203, 230, 34, 61, 
114, 171, 101, 188, 10, 207, 174, 188, 186, 45, 22, 62, 
104, 83, 119, 60, 137, 142, 209, 61, 33, 114, 74, 189, 
199, 45, 120, 189, 28, 138, 76, 61, 59, 26, 66, 189, 
14, 244, 165, 61, 149, 20, 255, 189, 74, 0, 230, 61, 
140, 232, 52, 190, 199, 7, 209, 61, 55, 95, 140, 187, 
170, 240, 5, 189, 2, 46, 217, 189, 13, 115, 16, 190, 
249, 224, 84, 189, 39, 27, 13, 62, 71, 225, 165, 61, 
30, 102, 35, 62, 213, 141, 140, 61, 62, 47, 162, 60, 
25, 41, 142, 61, 91, 36, 179, 61, 34, 6, 220, 61, 
103, 253, 23, 61, 236, 233, 135, 60, 64, 244, 197, 58, 
15, 204, 204, 61, 71, 13, 96, 61, 0, 228, 139, 61, 
166, 32, 249, 187, 183, 163, 167, 59, 57, 92, 81, 189, 
72, 70, 170, 189, 36, 3, 26, 190, 6, 235, 91, 61, 
231, 41, 8, 62, 200, 193, 243, 60, 164, 142, 225, 59, 
201, 125, 66, 190, 40, 218, 247, 189, 206, 34, 34, 190, 
35, 223, 46, 190, 24, 59, 138, 189, 254, 55, 2, 62, 
19, 176, 176, 61, 131, 151, 62, 61, 240, 181, 109, 61, 
176, 197, 71, 61, 89, 217, 41, 62, 82, 139, 20, 189, 
130, 45, 156, 190, 131, 193, 163, 189, 58, 129, 250, 61, 
85, 204, 64, 188, 220, 86, 160, 61, 145, 67, 175, 61, 
160, 14, 161, 61, 63, 117, 71, 190, 31, 72, 105, 189, 
103, 52, 11, 62, 65, 91, 190, 189, 96, 222, 7, 62, 
11, 236, 19, 189, 96, 22, 141, 189, 16, 32, 209, 61, 
128, 88, 38, 189, 183, 230, 134, 61, 245, 4, 253, 61, 
58, 116, 16, 189, 112, 112, 46, 61, 209, 116, 129, 189, 
74, 165, 49, 61, 229, 137, 144, 189, 169, 50, 155, 61, 
212, 107, 131, 61, 49, 49, 45, 62, 233, 156, 175, 189, 
183, 77, 109, 189, 110, 45, 47, 62, 34, 240, 3, 190, 
141, 227, 166, 61, 51, 43, 42, 62, 12, 249, 203, 189, 
172, 57, 193, 189, 125, 35, 66, 190, 152, 44, 49, 188, 
83, 20, 191, 188, 192, 4, 9, 62, 163, 214, 236, 189, 
242, 18, 95, 190, 6, 26, 14, 190, 208, 66, 220, 188, 
26, 196, 47, 61, 124, 227, 36, 189, 191, 17, 196, 60, 
110, 30, 113, 188, 243, 193, 163, 189, 148, 2, 27, 188, 
156, 153, 232, 187, 241, 59, 142, 189, 185, 158, 102, 61, 
222, 193, 45, 190, 21, 63, 10, 187, 177, 174, 21, 62, 
205, 131, 212, 61, 176, 243, 56, 190, 60, 123, 131, 61, 
20, 71, 2, 61, 125, 39, 117, 189, 54, 247, 112, 188, 
90, 46, 243, 189, 206, 86, 45, 61, 25, 150, 231, 60, 
49, 24, 247, 188, 166, 33, 174, 189, 231, 70, 6, 189, 
121, 247, 184, 189, 22, 80, 221, 189, 56, 209, 186, 188, 
207, 28, 25, 189, 242, 45, 215, 61, 108, 184, 91, 189, 
127, 196, 237, 61, 221, 33, 66, 189, 101, 239, 2, 62, 
126, 176, 41, 61, 219, 187, 195, 61, 234, 213, 157, 61, 
127, 74, 26, 62, 182, 137, 181, 189, 15, 246, 206, 61, 
118, 42, 109, 189, 236, 34, 35, 189, 53, 223, 8, 61, 
158, 151, 7, 189, 134, 26, 136, 61, 142, 208, 165, 59, 
40, 51, 12, 189, 144, 30, 79, 188, 247, 61, 148, 189, 
16, 156, 0, 62, 252, 30, 228, 189, 1, 58, 34, 190, 
249, 84, 132, 189, 229, 34, 232, 61, 246, 18, 45, 189, 
235, 19, 238, 61, 143, 9, 31, 189, 146, 125, 218, 61, 
164, 62, 159, 189, 170, 248, 233, 61, 191, 229, 67, 61, 
244, 111, 98, 61, 94, 244, 13, 61, 209, 15, 174, 189, 
15, 132, 59, 189, 187, 151, 170, 189, 17, 224, 180, 59, 
90, 131, 63, 61, 97, 216, 249, 189, 182, 243, 30, 190, 
222, 147, 100, 189, 109, 89, 78, 189, 38, 210, 104, 58, 
128, 205, 143, 189, 167, 4, 116, 189, 85, 192, 13, 188, 
65, 35, 98, 62, 137, 94, 8, 188, 156, 147, 112, 189, 
183, 42, 192, 189, 146, 195, 227, 60, 84, 245, 109, 61, 
35, 9, 25, 62, 89, 231, 200, 189, 86, 147, 73, 62, 
79, 211, 20, 61, 164, 85, 249, 188, 93, 59, 101, 62, 
63, 249, 237, 189, 121, 218, 0, 189, 222, 201, 64, 189, 
57, 191, 232, 189, 254, 220, 32, 190, 251, 137, 40, 62, 
250, 230, 41, 62, 42, 7, 13, 61, 76, 156, 159, 188, 
233, 139, 140, 61, 109, 107, 138, 189, 187, 79, 85, 189, 
51, 30, 19, 190, 18, 212, 198, 189, 70, 140, 240, 189, 
61, 251, 168, 188, 218, 50, 106, 62, 43, 139, 111, 60, 
191, 114, 160, 189, 243, 62, 112, 61, 208, 240, 75, 189, 
73, 193, 19, 190, 140, 63, 249, 60, 240, 31, 6, 190, 
87, 128, 150, 61, 142, 196, 238, 189, 171, 243, 68, 189, 
92, 144, 67, 61, 148, 125, 166, 61, 72, 58, 229, 189, 
73, 48, 206, 61, 222, 149, 153, 189, 130, 108, 19, 190, 
18, 240, 222, 61, 230, 204, 145, 189, 197, 239, 226, 61, 
220, 78, 36, 188, 208, 16, 1, 190, 155, 190, 206, 60, 
132, 233, 250, 61, 158, 120, 68, 61, 96, 69, 204, 189, 
39, 141, 20, 190, 99, 167, 245, 61, 199, 103, 136, 189, 
12, 45, 67, 62, 248, 169, 141, 61, 21, 151, 167, 61, 
140, 227, 204, 189, 178, 175, 253, 189, 155, 215, 216, 189, 
74, 16, 3, 62, 174, 212, 2, 188, 209, 185, 69, 61, 
114, 98, 195, 59, 91, 206, 167, 61, 76, 152, 171, 189, 
184, 154, 25, 190, 29, 225, 29, 62, 6, 88, 27, 189, 
248, 176, 79, 60, 151, 137, 221, 61, 244, 249, 26, 190, 
178, 250, 239, 189, 5, 193, 249, 61, 161, 89, 181, 60, 
159, 184, 39, 189, 170, 229, 8, 190, 244, 177, 215, 188, 
119, 108, 167, 59, 2, 112, 24, 190, 143, 177, 156, 189, 
163, 115, 45, 190, 251, 103, 247, 188, 247, 44, 20, 190, 
88, 138, 70, 61, 152, 69, 144, 189, 188, 38, 230, 61, 
109, 246, 43, 61, 65, 197, 21, 190, 94, 242, 21, 190, 
245, 167, 138, 61, 210, 160, 119, 189, 249, 78, 113, 189, 
0, 80, 13, 184, 249, 105, 208, 61, 195, 143, 175, 61, 
138, 28, 129, 189, 60, 16, 56, 61, 172, 39, 32, 61, 
254, 19, 175, 189, 240, 172, 53, 188, 140, 34, 29, 61, 
175, 210, 203, 61, 107, 151, 76, 61, 50, 78, 208, 189, 
138, 145, 134, 61, 30, 217, 232, 189, 13, 253, 9, 190, 
164, 233, 146, 56, 241, 228, 119, 61, 187, 25, 135, 61, 
130, 62, 117, 61, 23, 212, 92, 61, 173, 254, 46, 61, 
36, 85, 132, 189, 168, 42, 122, 189, 242, 208, 197, 61, 
182, 161, 0, 62, 25, 163, 21, 62, 49, 45, 205, 61, 
190, 103, 232, 189, 250, 35, 132, 189, 48, 111, 91, 61, 
122, 45, 173, 189, 205, 1, 218, 61, 136, 31, 42, 189, 
45, 182, 56, 189, 43, 12, 247, 189, 30, 61, 191, 61, 
145, 234, 167, 61, 107, 16, 7, 190, 21, 143, 243, 61, 
76, 84, 240, 188, 107, 84, 213, 188, 194, 112, 65, 61, 
69, 132, 132, 188, 205, 78, 220, 189, 5, 155, 217, 60, 
155, 200, 227, 189, 52, 217, 31, 61, 231, 102, 227, 59, 
55, 119, 12, 61, 93, 183, 177, 189, 9, 164, 140, 189, 
88, 149, 47, 61, 66, 152, 157, 189, 232, 63, 29, 190, 
242, 227, 109, 188, 225, 101, 31, 60, 83, 140, 20, 62, 
138, 132, 162, 189, 139, 2, 209, 61, 115, 49, 33, 190, 
32, 195, 181, 189, 190, 146, 114, 189, 124, 5, 123, 61, 
100, 118, 24, 190, 73, 168, 41, 59, 158, 94, 228, 189, 
147, 41, 175, 61, 167, 173, 14, 61, 240, 140, 234, 188, 
130, 94, 145, 61, 157, 164, 168, 188, 15, 67, 27, 62, 
68, 177, 210, 60, 161, 77, 229, 189, 65, 35, 250, 61, 
234, 100, 164, 189, 212, 60, 66, 61, 231, 147, 246, 189, 
156, 74, 220, 189, 224, 233, 42, 61, 209, 18, 141, 60, 
193, 208, 77, 188, 202, 8, 234, 189, 87, 224, 12, 60, 
205, 98, 64, 61, 137, 158, 205, 189, 222, 215, 29, 62, 
155, 52, 21, 190, 249, 55, 216, 189, 126, 196, 159, 189, 
113, 245, 14, 190, 225, 9, 86, 189, 8, 138, 152, 61, 
18, 149, 135, 189, 0, 100, 105, 61, 81, 25, 204, 189, 
221, 213, 8, 190, 173, 246, 45, 190, 204, 188, 96, 189, 
152, 149, 24, 62, 24, 96, 127, 189, 10, 189, 14, 190, 
145, 196, 230, 189, 58, 175, 184, 61, 136, 174, 136, 188, 
216, 156, 26, 189, 167, 191, 14, 62, 14, 93, 159, 61, 
215, 225, 153, 189, 141, 3, 228, 189, 217, 74, 109, 189, 
210, 150, 228, 61, 34, 115, 66, 189, 176, 233, 14, 62, 
67, 40, 153, 61, 165, 46, 12, 190, 15, 199, 162, 189, 
128, 235, 174, 61, 240, 146, 68, 62, 136, 115, 47, 189, 
81, 51, 11, 190, 243, 232, 180, 60, 207, 220, 221, 61, 
191, 246, 37, 189, 10, 89, 157, 59, 215, 129, 28, 62, 
143, 109, 156, 189, 124, 91, 217, 189, 73, 145, 86, 61, 
177, 173, 180, 188, 101, 13, 57, 189, 161, 98, 109, 188, 
217, 135, 200, 61, 101, 199, 212, 61, 157, 217, 138, 61, 
36, 98, 38, 190, 34, 168, 98, 61, 152, 84, 204, 61, 
203, 119, 213, 189, 111, 170, 48, 62, 78, 82, 3, 190, 
200, 101, 20, 190, 24, 6, 50, 61, 246, 43, 169, 187, 
221, 33, 134, 188, 51, 152, 52, 189, 158, 77, 188, 61, 
171, 187, 201, 60, 104, 185, 147, 61, 99, 33, 222, 189, 
237, 67, 234, 189, 103, 19, 8, 190, 32, 62, 236, 188, 
30, 69, 95, 61, 134, 180, 147, 61, 187, 69, 246, 61, 
111, 213, 130, 58, 74, 182, 239, 61, 104, 33, 195, 189, 
200, 56, 21, 61, 240, 236, 120, 187, 106, 12, 185, 61, 
248, 169, 136, 189, 50, 34, 215, 189, 216, 214, 11, 61, 
102, 166, 19, 190, 203, 68, 49, 189, 50, 197, 0, 190, 
153, 245, 40, 189, 75, 30, 229, 60, 139, 118, 180, 60, 
210, 8, 145, 58, 160, 83, 12, 61, 62, 204, 125, 189, 
187, 65, 198, 61, 100, 71, 18, 190, 179, 207, 46, 190, 
150, 10, 83, 61, 170, 190, 31, 189, 79, 174, 254, 188, 
210, 24, 132, 60, 238, 214, 136, 60, 162, 64, 8, 61, 
189, 215, 147, 61, 148, 76, 95, 59, 136, 168, 20, 190, 
241, 1, 144, 59, 159, 233, 48, 60, 176, 126, 133, 60, 
88, 29, 26, 190, 209, 101, 125, 61, 159, 170, 137, 61, 
141, 238, 176, 189, 215, 59, 149, 189, 48, 81, 229, 189, 
228, 149, 5, 190, 254, 29, 8, 190, 81, 3, 42, 190, 
43, 103, 23, 59, 157, 219, 190, 61, 221, 184, 227, 61, 
221, 116, 174, 61, 49, 2, 4, 190, 155, 54, 168, 189, 
143, 242, 48, 60, 16, 10, 69, 189, 55, 1, 186, 60, 
253, 70, 77, 189, 38, 236, 0, 189, 59, 3, 191, 61, 
120, 212, 40, 190, 143, 149, 181, 61, 68, 79, 242, 60, 
223, 97, 98, 61, 37, 131, 84, 189, 78, 80, 6, 190, 
150, 30, 124, 189, 230, 110, 183, 60, 156, 110, 169, 60, 
98, 71, 179, 61, 247, 96, 98, 61, 214, 96, 19, 190, 
201, 211, 155, 60, 206, 86, 25, 189, 83, 32, 192, 61, 
225, 10, 192, 61, 156, 165, 91, 61, 132, 193, 126, 61, 
156, 198, 223, 187, 245, 16, 119, 61, 17, 241, 131, 188, 
132, 114, 110, 189, 151, 127, 207, 189, 140, 36, 181, 61, 
27, 29, 32, 62, 219, 139, 127, 61, 238, 107, 137, 61, 
172, 192, 4, 61, 148, 177, 58, 60, 53, 188, 132, 189, 
185, 211, 31, 62, 157, 238, 132, 61, 0, 61, 134, 61, 
240, 218, 128, 189, 95, 234, 231, 189, 209, 127, 128, 189, 
243, 226, 223, 188, 244, 9, 167, 58, 148, 97, 143, 61, 
91, 139, 45, 62, 209, 1, 146, 189, 103, 5, 130, 60, 
236, 8, 45, 190, 118, 27, 134, 60, 71, 172, 24, 189, 
9, 1, 170, 189, 124, 82, 177, 58, 112, 90, 10, 190, 
5, 150, 138, 187, 246, 243, 150, 61, 91, 139, 144, 61, 
20, 60, 166, 189, 110, 162, 59, 189, 200, 52, 166, 61, 
226, 230, 191, 61, 254, 228, 49, 60, 238, 121, 14, 61, 
238, 39, 198, 61, 108, 27, 203, 60, 130, 160, 77, 189, 
170, 236, 2, 190, 8, 208, 61, 189, 184, 27, 52, 189, 
64, 62, 112, 61, 132, 151, 130, 189, 183, 123, 138, 61, 
90, 189, 218, 60, 63, 176, 28, 190, 74, 77, 251, 59, 
45, 222, 250, 189, 227, 221, 242, 61, 122, 123, 146, 61, 
163, 95, 144, 188, 16, 206, 226, 61, 24, 145, 84, 61, 
183, 184, 220, 60, 146, 119, 57, 190, 175, 213, 31, 190, 
168, 26, 77, 189, 87, 6, 156, 189, 83, 185, 55, 189, 
208, 98, 181, 189, 255, 67, 164, 61, 30, 128, 238, 187, 
218, 212, 197, 189, 170, 165, 76, 60, 127, 29, 234, 189, 
236, 124, 168, 61, 132, 56, 246, 189, 42, 57, 235, 61, 
23, 73, 32, 61, 209, 142, 187, 61, 243, 134, 193, 61, 
30, 41, 22, 190, 248, 150, 42, 62, 14, 242, 182, 188, 
13, 175, 84, 61, 81, 177, 163, 189, 168, 239, 173, 61, 
13, 168, 10, 190, 184, 192, 61, 61, 224, 207, 144, 59, 
113, 111, 17, 62, 222, 43, 3, 190, 86, 163, 24, 62, 
217, 105, 9, 61, 119, 82, 235, 61, 206, 205, 210, 61, 
166, 147, 35, 190, 52, 31, 74, 189, 126, 194, 161, 189, 
64, 123, 202, 189, 47, 37, 29, 62, 160, 42, 133, 189, 
110, 222, 0, 62, 96, 10, 213, 61, 125, 239, 63, 62, 
148, 10, 245, 59, 186, 234, 164, 189, 148, 13, 34, 189, 
6, 229, 12, 190, 160, 226, 159, 188, 16, 195, 211, 189, 
58, 169, 156, 61, 163, 41, 210, 61, 208, 114, 41, 61, 
69, 107, 134, 61, 170, 180, 234, 189, 71, 248, 234, 187, 
148, 54, 186, 189, 143, 155, 27, 189, 4, 186, 253, 61, 
134, 216, 53, 190, 132, 55, 128, 189, 190, 117, 94, 61, 
65, 34, 126, 189, 112, 227, 140, 59, 207, 94, 11, 190, 
166, 65, 231, 189, 134, 159, 148, 59, 219, 152, 212, 61, 
10, 211, 216, 61, 146, 22, 5, 61, 237, 247, 149, 189, 
236, 2, 59, 62, 54, 115, 161, 189, 31, 212, 213, 61, 
44, 10, 105, 61, 97, 165, 171, 61, 188, 123, 86, 61, 
191, 117, 95, 189, 246, 9, 19, 62, 219, 174, 184, 189, 
184, 87, 151, 61, 45, 246, 163, 189, 34, 220, 161, 61, 
147, 152, 204, 189, 37, 36, 230, 189, 83, 38, 36, 190, 
88, 41, 195, 187, 72, 156, 78, 61, 148, 242, 110, 189, 
241, 101, 237, 61, 197, 215, 134, 188, 228, 222, 175, 188, 
188, 245, 167, 61, 228, 190, 192, 61, 63, 197, 171, 61, 
169, 207, 220, 188, 102, 155, 1, 62, 3, 54, 131, 189, 
63, 248, 248, 189, 30, 207, 93, 59, 39, 243, 175, 61, 
35, 149, 117, 62, 71, 24, 45, 62, 150, 232, 68, 190, 
89, 64, 79, 57, 35, 187, 232, 189, 216, 222, 180, 61, 
224, 207, 73, 189, 22, 99, 172, 188, 130, 48, 151, 59, 
15, 44, 188, 61, 129, 112, 152, 61, 105, 90, 5, 190, 
127, 222, 237, 61, 96, 184, 201, 189, 185, 73, 26, 190, 
63, 88, 211, 61, 158, 132, 49, 188, 104, 90, 101, 189, 
174, 43, 238, 61, 112, 138, 2, 190, 213, 229, 252, 61, 
114, 169, 235, 61, 19, 9, 34, 62, 161, 195, 84, 61, 
106, 72, 6, 61, 213, 32, 67, 61, 51, 96, 13, 190, 
164, 63, 238, 61, 89, 31, 89, 189, 254, 241, 166, 61, 
78, 169, 167, 61, 143, 136, 159, 61, 93, 115, 155, 59, 
96, 33, 207, 61, 234, 251, 179, 61, 177, 211, 211, 189, 
100, 126, 10, 62, 87, 52, 177, 61, 220, 63, 254, 61, 
27, 110, 112, 189, 24, 95, 235, 188, 15, 192, 71, 189, 
129, 67, 28, 61, 160, 48, 138, 61, 56, 240, 91, 61, 
250, 155, 230, 61, 215, 149, 194, 60, 249, 201, 23, 189, 
82, 72, 35, 189, 46, 99, 194, 61, 220, 183, 19, 62, 
11, 208, 152, 61, 22, 90, 15, 190, 3, 235, 72, 189, 
42, 71, 156, 61, 49, 50, 171, 189, 23, 243, 140, 61, 
127, 251, 8, 190, 165, 240, 224, 189, 188, 118, 171, 189, 
87, 131, 115, 61, 25, 174, 172, 61, 53, 3, 45, 62, 
157, 59, 224, 61, 150, 22, 28, 62, 73, 82, 104, 61, 
53, 111, 141, 189, 236, 203, 51, 189, 52, 15, 209, 61, 
39, 102, 153, 189, 177, 200, 28, 189, 32, 146, 140, 189, 
152, 81, 215, 60, 224, 139, 151, 61, 206, 151, 67, 61, 
236, 241, 219, 188, 60, 127, 217, 61, 197, 214, 131, 189, 
49, 43, 144, 188, 89, 169, 67, 61, 68, 170, 131, 62, 
243, 29, 88, 60, 209, 86, 3, 190, 235, 67, 11, 190, 
118, 193, 87, 61, 74, 231, 23, 62, 177, 155, 195, 61, 
211, 105, 170, 61, 167, 139, 33, 62, 222, 185, 216, 60, 
170, 146, 142, 61, 193, 50, 68, 61, 229, 254, 12, 189, 
179, 202, 61, 189, 83, 96, 181, 188, 185, 85, 107, 62, 
175, 245, 33, 189, 238, 217, 83, 62, 187, 157, 55, 62, 
209, 194, 83, 61, 137, 0, 111, 190, 110, 206, 22, 189, 
83, 146, 208, 189, 227, 107, 146, 189, 211, 206, 92, 60, 
157, 61, 246, 189, 76, 128, 23, 62, 24, 57, 182, 189, 
84, 100, 70, 61, 160, 81, 56, 59, 207, 46, 44, 190, 
4, 201, 216, 61, 245, 173, 128, 189, 22, 173, 32, 190, 
116, 25, 219, 189, 174, 216, 186, 59, 157, 132, 1, 190, 
148, 90, 22, 62, 68, 180, 236, 61, 58, 133, 161, 189, 
156, 110, 236, 189, 151, 27, 204, 60, 4, 8, 151, 189, 
193, 117, 143, 57, 0, 50, 24, 187, 1, 156, 18, 62, 
155, 155, 251, 189, 162, 15, 128, 61, 194, 182, 67, 62, 
41, 3, 145, 60, 247, 89, 58, 187, 145, 3, 214, 189, 
38, 111, 55, 190, 79, 165, 19, 62, 182, 1, 251, 189, 
84, 233, 219, 61, 251, 156, 8, 62, 151, 134, 174, 61, 
221, 133, 0, 62, 220, 50, 76, 190, 234, 173, 86, 188, 
40, 141, 59, 190, 70, 207, 246, 188, 79, 226, 19, 61, 
191, 84, 65, 188, 252, 237, 8, 190, 21, 83, 117, 60, 
40, 148, 32, 190, 184, 20, 175, 61, 127, 24, 195, 61, 
224, 166, 235, 189, 88, 116, 25, 190, 211, 57, 110, 61, 
235, 70, 71, 188, 161, 10, 133, 189, 14, 87, 192, 189, 
24, 65, 1, 61, 255, 103, 105, 189, 209, 30, 1, 61, 
132, 18, 13, 61, 146, 231, 13, 190, 183, 38, 252, 61, 
105, 24, 142, 61, 1, 79, 146, 189, 134, 36, 0, 189, 
195, 184, 157, 60, 73, 216, 50, 190, 58, 93, 205, 61, 
253, 69, 195, 61, 63, 130, 173, 61, 219, 56, 222, 61, 
153, 22, 160, 61, 69, 175, 15, 62, 86, 223, 229, 189, 
91, 244, 51, 61, 220, 236, 202, 189, 58, 54, 31, 190, 
109, 122, 180, 189, 148, 87, 145, 189, 121, 43, 162, 189, 
179, 197, 247, 61, 89, 159, 168, 59, 80, 39, 7, 61, 
172, 204, 183, 61, 85, 26, 77, 60, 115, 132, 2, 190, 
100, 204, 197, 61, 65, 87, 91, 61, 58, 221, 148, 61, 
57, 73, 6, 190, 129, 210, 119, 60, 169, 155, 52, 190, 
210, 27, 214, 189, 158, 68, 205, 189, 229, 149, 117, 189, 
197, 118, 1, 189, 124, 204, 0, 62, 58, 253, 4, 189, 
146, 28, 196, 61, 68, 68, 252, 188, 164, 254, 50, 190, 
251, 89, 137, 189, 134, 166, 123, 189, 0, 14, 249, 189, 
65, 19, 3, 190, 210, 90, 35, 190, 174, 22, 206, 60, 
92, 237, 243, 189, 185, 185, 214, 61, 116, 121, 4, 62, 
85, 4, 93, 189, 117, 160, 205, 189, 98, 134, 117, 189, 
143, 42, 149, 188, 255, 143, 37, 189, 185, 51, 235, 189, 
130, 84, 245, 189, 194, 245, 68, 189, 75, 204, 211, 189, 
94, 83, 41, 61, 185, 85, 231, 189, 224, 148, 235, 189, 
150, 217, 245, 189, 99, 74, 42, 189, 203, 1, 16, 189, 
63, 101, 50, 190, 169, 228, 199, 189, 20, 208, 201, 189, 
204, 95, 188, 189, 25, 46, 140, 61, 251, 182, 198, 189, 
147, 30, 128, 188, 116, 117, 42, 189, 203, 87, 44, 188, 
251, 226, 71, 189, 61, 81, 70, 61, 0, 127, 144, 60, 
104, 120, 89, 189, 185, 27, 204, 61, 55, 117, 156, 61, 
70, 202, 3, 190, 3, 184, 82, 189, 228, 108, 5, 190, 
118, 197, 135, 187, 171, 238, 132, 61, 131, 67, 144, 189, 
208, 238, 32, 190, 100, 100, 155, 189, 94, 242, 162, 189, 
23, 76, 27, 190, 137, 71, 2, 190, 218, 111, 8, 188, 
188, 44, 152, 188, 110, 70, 28, 190, 64, 225, 33, 190, 
80, 155, 61, 61, 94, 125, 80, 60, 44, 71, 138, 61, 
148, 252, 128, 190, 59, 164, 19, 62, 81, 27, 213, 189, 
190, 23, 47, 61, 233, 81, 246, 189, 108, 253, 17, 189, 
182, 147, 4, 61, 231, 63, 61, 61, 25, 225, 84, 61, 
40, 100, 239, 189, 233, 251, 129, 189, 61, 195, 61, 190, 
188, 120, 235, 60, 243, 151, 56, 61, 19, 6, 211, 60, 
207, 30, 164, 61, 179, 93, 235, 189, 140, 93, 167, 61, 
109, 55, 161, 188, 157, 76, 57, 190, 227, 180, 187, 61, 
255, 73, 33, 190, 21, 251, 104, 61, 93, 162, 42, 188, 
59, 171, 230, 59, 131, 157, 71, 189, 107, 12, 78, 189, 
183, 1, 227, 61, 248, 246, 58, 60, 202, 33, 62, 61, 
205, 7, 23, 62, 55, 112, 193, 61, 79, 204, 31, 190, 
111, 144, 135, 189, 44, 90, 234, 61, 97, 157, 116, 189, 
232, 5, 0, 190, 42, 61, 166, 189, 65, 252, 72, 60, 
214, 66, 191, 61, 26, 153, 183, 61, 160, 29, 202, 187, 
166, 100, 25, 190, 194, 34, 144, 189, 12, 252, 6, 61, 
16, 159, 142, 61, 152, 197, 65, 61, 19, 248, 65, 62, 
24, 231, 102, 189, 255, 57, 25, 190, 57, 161, 241, 61, 
164, 28, 224, 61, 137, 119, 57, 189, 113, 21, 24, 190, 
195, 173, 244, 61, 88, 28, 114, 59, 82, 208, 55, 190, 
132, 49, 117, 188, 133, 170, 107, 189, 135, 7, 4, 59, 
5, 151, 110, 59, 52, 111, 184, 61, 173, 109, 3, 190, 
71, 151, 37, 189, 107, 211, 56, 190, 6, 156, 211, 61, 
73, 84, 183, 60, 221, 67, 205, 61, 125, 25, 121, 189, 
24, 244, 48, 61, 13, 168, 18, 61, 135, 161, 249, 188, 
148, 10, 37, 62, 205, 239, 53, 61, 98, 255, 156, 61, 
171, 105, 132, 188, 94, 215, 54, 190, 246, 78, 222, 189, 
12, 113, 0, 190, 176, 234, 127, 189, 8, 24, 38, 57, 
44, 201, 234, 189, 1, 99, 238, 188, 206, 65, 209, 189, 
60, 8, 58, 60, 26, 37, 117, 61, 245, 41, 5, 190, 
243, 151, 211, 61, 65, 250, 206, 61, 244, 198, 0, 62, 
63, 86, 224, 61, 109, 78, 170, 188, 252, 68, 144, 189, 
65, 176, 30, 62, 160, 201, 228, 60, 88, 103, 133, 60, 
55, 214, 166, 61, 60, 187, 20, 62, 215, 125, 150, 62, 
193, 220, 128, 60, 84, 252, 171, 188, 89, 241, 4, 62, 
65, 46, 55, 190, 34, 210, 184, 188, 229, 231, 56, 62, 
191, 215, 164, 61, 196, 172, 19, 62, 121, 35, 187, 189, 
136, 226, 213, 188, 162, 32, 87, 190, 78, 231, 118, 187, 
100, 99, 14, 190, 85, 216, 84, 190, 77, 106, 165, 62, 
27, 18, 10, 189, 117, 87, 38, 189, 154, 33, 180, 61, 
12, 58, 233, 187, 211, 241, 121, 189, 21, 227, 47, 60, 
103, 115, 250, 188, 75, 139, 144, 189, 130, 5, 42, 61, 
94, 179, 182, 189, 191, 36, 122, 61, 149, 210, 146, 189, 
233, 97, 96, 61, 85, 12, 155, 189, 170, 23, 0, 61, 
217, 151, 55, 62, 207, 17, 102, 61, 65, 95, 236, 61, 
3, 31, 139, 187, 146, 40, 62, 188, 8, 57, 194, 189, 
54, 210, 186, 188, 142, 180, 115, 61, 43, 202, 139, 61, 
170, 141, 4, 189, 35, 165, 36, 61, 32, 234, 33, 61, 
80, 158, 189, 60, 66, 143, 162, 61, 91, 15, 69, 189, 
98, 54, 190, 61, 55, 119, 240, 60, 120, 42, 37, 61, 
251, 195, 249, 188, 160, 135, 101, 62, 232, 127, 201, 61, 
221, 169, 163, 61, 202, 232, 62, 61, 107, 78, 168, 189, 
81, 25, 33, 190, 105, 113, 13, 59, 35, 162, 16, 62, 
16, 57, 155, 189, 237, 9, 99, 61, 43, 38, 193, 61, 
248, 168, 238, 187, 174, 43, 172, 61, 190, 5, 241, 61, 
225, 112, 0, 190, 102, 255, 202, 60, 107, 67, 69, 61, 
176, 89, 128, 61, 85, 149, 62, 62, 173, 15, 76, 62, 
162, 65, 51, 62, 151, 228, 223, 189, 69, 96, 74, 188, 
213, 42, 89, 190, 200, 115, 255, 61, 132, 91, 107, 190, 
204, 77, 179, 61, 196, 164, 146, 189, 84, 17, 234, 61, 
8, 3, 82, 62, 15, 76, 114, 187, 68, 108, 199, 61, 
197, 222, 146, 61, 198, 177, 60, 61, 10, 8, 162, 187, 
109, 101, 136, 61, 178, 219, 92, 189, 35, 248, 1, 190, 
153, 106, 122, 189, 128, 219, 9, 188, 147, 125, 232, 189, 
33, 136, 44, 189, 232, 51, 236, 61, 171, 209, 132, 61, 
137, 217, 50, 62, 43, 180, 163, 188, 115, 3, 78, 61, 
25, 43, 73, 60, 105, 22, 19, 190, 32, 31, 15, 190, 
197, 136, 31, 61, 54, 6, 212, 189, 125, 35, 7, 60, 
164, 229, 209, 61, 74, 236, 220, 58, 180, 235, 97, 189, 
170, 66, 16, 61, 224, 140, 136, 189, 26, 110, 50, 190, 
6, 101, 173, 188, 140, 149, 162, 189, 224, 236, 185, 60, 
218, 5, 126, 61, 101, 182, 147, 61, 117, 135, 116, 60, 
67, 2, 192, 189, 223, 117, 60, 61, 174, 15, 27, 189, 
73, 17, 146, 61, 243, 226, 238, 189, 66, 136, 138, 60, 
61, 121, 195, 61, 111, 113, 172, 189, 201, 182, 0, 190, 
235, 224, 129, 189, 138, 179, 146, 61, 25, 187, 41, 189, 
15, 62, 23, 62, 55, 97, 51, 189, 189, 118, 37, 190, 
20, 185, 33, 190, 132, 67, 22, 61, 240, 240, 41, 61, 
72, 150, 225, 61, 67, 254, 183, 61, 180, 5, 103, 189, 
134, 88, 192, 189, 209, 187, 161, 188, 201, 241, 203, 188, 
143, 2, 11, 189, 0, 42, 255, 61, 90, 4, 130, 189, 
82, 221, 84, 190, 238, 39, 171, 189, 86, 204, 66, 59, 
121, 255, 141, 189, 116, 219, 137, 62, 65, 135, 70, 190, 
241, 230, 7, 62, 48, 33, 114, 188, 80, 11, 137, 61, 
212, 88, 233, 61, 250, 172, 71, 189, 106, 68, 162, 187, 
134, 221, 190, 189, 65, 99, 155, 189, 254, 31, 0, 62, 
189, 229, 102, 189, 41, 197, 7, 61, 10, 230, 184, 61, 
72, 141, 29, 189, 228, 2, 26, 190, 144, 96, 23, 190, 
124, 94, 66, 61, 227, 210, 141, 189, 213, 224, 218, 60, 
12, 141, 251, 189, 126, 57, 73, 190, 0, 240, 121, 189, 
12, 135, 161, 60, 110, 158, 233, 61, 182, 187, 189, 61, 
74, 97, 45, 189, 58, 83, 221, 60, 110, 132, 244, 189, 
45, 79, 159, 61, 131, 235, 100, 61, 139, 161, 99, 61, 
70, 73, 177, 61, 65, 164, 205, 61, 11, 127, 235, 61, 
117, 63, 124, 190, 120, 99, 15, 62, 255, 78, 208, 61, 
228, 180, 6, 190, 156, 104, 38, 61, 252, 175, 34, 190, 
103, 4, 52, 190, 125, 240, 154, 60, 165, 158, 148, 61, 
184, 213, 54, 190, 89, 212, 13, 190, 54, 5, 252, 189, 
216, 160, 175, 188, 94, 88, 150, 189, 174, 242, 17, 61, 
59, 62, 21, 61, 25, 238, 217, 61, 52, 224, 150, 189, 
254, 137, 101, 189, 132, 58, 140, 189, 62, 2, 237, 189, 
40, 41, 107, 186, 15, 17, 148, 189, 155, 165, 213, 60, 
73, 245, 165, 189, 164, 60, 25, 190, 233, 22, 167, 61, 
71, 76, 204, 189, 98, 115, 182, 188, 192, 75, 183, 60, 
188, 162, 151, 189, 193, 6, 136, 61, 255, 22, 128, 189, 
21, 203, 192, 187, 179, 31, 166, 61, 97, 12, 74, 61, 
59, 52, 207, 187, 212, 160, 255, 189, 215, 167, 208, 61, 
231, 135, 79, 190, 251, 49, 78, 189, 121, 44, 34, 62, 
81, 105, 22, 188, 125, 135, 212, 189, 174, 137, 169, 61, 
174, 28, 4, 190, 56, 172, 148, 61, 130, 33, 183, 189, 
124, 0, 253, 187, 19, 183, 85, 61, 254, 7, 147, 61, 
53, 50, 154, 188, 228, 89, 168, 61, 61, 83, 214, 189, 
133, 210, 182, 61, 206, 252, 96, 60, 121, 86, 36, 189, 
61, 38, 220, 61, 190, 59, 131, 189, 15, 182, 132, 61, 
86, 194, 8, 190, 201, 5, 34, 190, 178, 137, 236, 61, 
129, 164, 58, 189, 136, 37, 19, 61, 110, 80, 62, 189, 
39, 200, 168, 189, 77, 48, 36, 62, 161, 175, 15, 190, 
117, 111, 25, 60, 42, 210, 43, 61, 199, 169, 228, 189, 
45, 32, 28, 62, 117, 136, 181, 189, 115, 247, 248, 189, 
22, 68, 211, 189, 253, 37, 16, 60, 156, 206, 67, 60, 
52, 152, 60, 189, 29, 152, 139, 189, 25, 66, 157, 61, 
242, 68, 161, 61, 94, 154, 19, 62, 117, 46, 209, 189, 
86, 123, 195, 61, 139, 255, 136, 61, 196, 131, 34, 62, 
47, 124, 250, 189, 48, 62, 197, 189, 134, 138, 67, 189, 
111, 222, 139, 61, 252, 117, 246, 59, 185, 111, 6, 188, 
213, 69, 21, 190, 115, 63, 133, 188, 124, 37, 234, 61, 
169, 5, 68, 62, 177, 182, 4, 62, 201, 99, 3, 62, 
127, 117, 203, 189, 197, 118, 112, 189, 175, 199, 188, 189, 
149, 239, 135, 189, 4, 6, 160, 61, 244, 244, 78, 60, 
37, 206, 215, 189, 190, 104, 180, 189, 198, 146, 220, 189, 
7, 59, 236, 189, 232, 158, 250, 189, 193, 123, 251, 60, 
78, 180, 232, 189, 118, 236, 243, 187, 71, 176, 159, 61, 
122, 95, 190, 189, 241, 6, 2, 62, 206, 233, 33, 188, 
151, 248, 243, 61, 147, 193, 240, 61, 94, 81, 145, 187, 
24, 78, 163, 189, 252, 69, 250, 60, 33, 190, 243, 61, 
54, 115, 157, 58, 48, 131, 43, 190, 172, 215, 163, 187, 
62, 45, 167, 59, 177, 202, 91, 61, 201, 50, 252, 189, 
222, 175, 227, 188, 109, 190, 132, 61, 216, 100, 157, 61, 
236, 74, 232, 189, 235, 154, 249, 189, 116, 166, 70, 190, 
30, 116, 194, 61, 90, 246, 61, 189, 170, 199, 221, 61, 
161, 96, 220, 188, 187, 9, 4, 189, 220, 35, 220, 189, 
252, 15, 250, 59, 175, 95, 76, 60, 32, 136, 66, 187, 
232, 186, 233, 188, 21, 90, 160, 189, 132, 231, 48, 61, 
125, 236, 157, 188, 230, 146, 136, 61, 139, 156, 53, 62, 
210, 195, 253, 61, 20, 109, 242, 61, 202, 21, 233, 60, 
70, 64, 26, 190, 225, 205, 175, 189, 221, 142, 219, 61, 
125, 198, 68, 188, 99, 29, 222, 189, 231, 45, 255, 189, 
246, 159, 168, 61, 191, 199, 229, 188, 27, 58, 2, 190, 
104, 62, 121, 189, 11, 255, 233, 59, 93, 124, 243, 189, 
166, 137, 17, 62, 65, 241, 230, 189, 231, 228, 182, 189, 
67, 19, 69, 190, 207, 168, 234, 189, 176, 118, 255, 61, 
85, 194, 181, 59, 101, 103, 34, 190, 187, 12, 250, 189, 
34, 169, 148, 60, 121, 159, 197, 61, 252, 58, 252, 189, 
239, 65, 4, 62, 150, 106, 206, 188, 223, 46, 120, 189, 
172, 211, 135, 60, 91, 18, 81, 61, 206, 87, 71, 189, 
22, 194, 130, 188, 210, 108, 108, 60, 33, 243, 191, 61, 
177, 36, 167, 188, 237, 65, 231, 61, 43, 176, 37, 190, 
92, 48, 46, 62, 202, 182, 152, 60, 57, 227, 181, 189, 
44, 13, 34, 61, 112, 31, 210, 61, 168, 45, 26, 61, 
48, 119, 53, 62, 163, 105, 83, 189, 204, 42, 161, 61, 
18, 194, 231, 189, 188, 162, 121, 190, 38, 30, 16, 62, 
17, 38, 194, 61, 159, 119, 11, 190, 229, 127, 95, 189, 
73, 17, 197, 189, 52, 212, 221, 61, 187, 143, 174, 61, 
216, 25, 63, 189, 78, 135, 141, 61, 114, 195, 150, 61, 
140, 152, 190, 189, 195, 202, 15, 62, 196, 200, 210, 59, 
125, 29, 211, 61, 90, 241, 104, 61, 195, 129, 65, 61, 
237, 130, 34, 190, 93, 95, 31, 190, 88, 13, 33, 190, 
159, 2, 75, 61, 87, 135, 202, 61, 131, 119, 2, 190, 
82, 212, 65, 189, 178, 100, 81, 189, 246, 234, 197, 60, 
251, 210, 201, 189, 198, 151, 242, 188, 59, 178, 110, 61, 
117, 46, 181, 189, 39, 131, 25, 62, 108, 179, 231, 61, 
179, 158, 140, 61, 61, 189, 83, 186, 122, 53, 156, 61, 
30, 46, 54, 62, 253, 235, 33, 189, 77, 52, 83, 61, 
224, 62, 147, 61, 41, 180, 14, 190, 240, 117, 156, 61, 
31, 10, 253, 189, 218, 191, 253, 189, 211, 143, 176, 189, 
233, 196, 180, 189, 106, 132, 1, 62, 32, 175, 133, 60, 
10, 195, 254, 61, 137, 190, 48, 189, 25, 69, 55, 61, 
191, 93, 146, 189, 10, 254, 176, 61, 24, 8, 247, 61, 
165, 95, 17, 188, 23, 123, 47, 189, 102, 204, 14, 190, 
174, 57, 143, 61, 2, 246, 134, 61, 233, 112, 247, 187, 
86, 47, 15, 61, 96, 175, 37, 189, 148, 189, 204, 58, 
200, 39, 206, 189, 22, 155, 174, 189, 27, 126, 169, 61, 
184, 75, 65, 189, 212, 8, 66, 59, 210, 112, 213, 188, 
234, 46, 170, 189, 56, 64, 68, 61, 169, 102, 3, 61, 
119, 40, 180, 189, 136, 73, 163, 189, 103, 76, 118, 61, 
123, 216, 94, 61, 55, 190, 207, 61, 175, 34, 26, 61, 
142, 76, 23, 60, 95, 77, 254, 61, 196, 119, 19, 188, 
200, 181, 74, 61, 186, 79, 241, 189, 248, 47, 70, 61, 
214, 40, 155, 189, 100, 167, 71, 189, 13, 33, 33, 62, 
47, 9, 191, 61, 193, 253, 176, 61, 141, 0, 170, 189, 
148, 254, 107, 62, 237, 209, 107, 189, 107, 3, 27, 61, 
194, 195, 185, 189, 1, 10, 36, 189, 57, 138, 140, 189, 
248, 152, 174, 60, 208, 143, 108, 189, 130, 192, 50, 61, 
204, 105, 82, 186, 53, 61, 248, 61, 46, 14, 195, 189, 
20, 74, 18, 60, 179, 147, 5, 60, 214, 41, 215, 61, 
82, 100, 31, 62, 194, 71, 165, 189, 29, 29, 239, 61, 
201, 96, 236, 186, 223, 3, 232, 189, 1, 1, 4, 62, 
255, 128, 225, 189, 100, 81, 104, 61, 70, 41, 76, 189, 
135, 242, 161, 189, 152, 106, 222, 59, 85, 194, 241, 189, 
234, 121, 31, 190, 102, 142, 86, 61, 56, 20, 18, 188, 
175, 80, 4, 62, 207, 133, 38, 61, 214, 130, 83, 188, 
65, 1, 168, 189, 186, 43, 120, 61, 231, 45, 24, 189, 
4, 255, 33, 189, 25, 118, 64, 60, 241, 226, 9, 190, 
115, 77, 20, 61, 30, 189, 51, 189, 140, 215, 121, 189, 
44, 72, 87, 189, 62, 19, 241, 61, 220, 68, 146, 189, 
152, 87, 238, 61, 224, 222, 69, 188, 44, 126, 142, 61, 
171, 237, 3, 62, 213, 107, 241, 60, 28, 49, 93, 60, 
111, 208, 30, 61, 84, 0, 200, 61, 166, 13, 178, 188, 
42, 244, 169, 61, 6, 230, 2, 61, 225, 126, 156, 61, 
82, 228, 125, 188, 138, 155, 254, 61, 235, 88, 11, 189, 
209, 119, 64, 189, 23, 86, 145, 189, 202, 251, 5, 190, 
77, 106, 5, 189, 110, 191, 8, 190, 235, 239, 245, 61, 
200, 190, 186, 189, 27, 35, 207, 61, 254, 91, 228, 61, 
109, 143, 231, 189, 0, 146, 167, 189, 183, 127, 249, 189, 
46, 157, 109, 190, 227, 28, 34, 190, 26, 128, 7, 62, 
138, 177, 2, 189, 46, 12, 85, 61, 124, 84, 44, 190, 
71, 114, 83, 188, 30, 62, 98, 60, 99, 50, 95, 60, 
206, 173, 236, 189, 170, 236, 82, 62, 191, 224, 213, 189, 
228, 245, 32, 190, 181, 60, 10, 62, 128, 175, 15, 62, 
249, 64, 39, 188, 102, 247, 87, 61, 158, 121, 119, 188, 
195, 34, 232, 60, 173, 121, 64, 61, 134, 180, 42, 62, 
190, 18, 44, 61, 97, 139, 191, 189, 208, 161, 40, 62, 
115, 169, 38, 190, 142, 67, 76, 61, 248, 59, 22, 189, 
34, 62, 79, 62, 17, 231, 9, 62, 105, 246, 161, 59, 
124, 226, 24, 60, 0, 123, 176, 61, 177, 156, 104, 189, 
57, 27, 1, 61, 74, 132, 253, 189, 136, 247, 20, 190, 
58, 158, 150, 189, 11, 169, 189, 61, 187, 109, 32, 189, 
58, 63, 201, 61, 15, 214, 239, 189, 205, 140, 46, 61, 
213, 212, 255, 61, 54, 48, 55, 189, 137, 105, 27, 62, 
137, 103, 37, 61, 124, 2, 133, 188, 29, 26, 208, 189, 
153, 123, 131, 189, 28, 67, 10, 62, 103, 78, 205, 189, 
76, 241, 177, 189, 240, 85, 229, 61, 13, 138, 110, 61, 
120, 186, 149, 61, 225, 130, 173, 61, 133, 31, 135, 59, 
227, 200, 21, 61, 128, 166, 27, 190, 144, 198, 104, 62, 
158, 193, 145, 61, 118, 166, 7, 190, 37, 241, 178, 61, 
13, 130, 37, 190, 184, 237, 7, 190, 83, 41, 15, 62, 
104, 229, 13, 62, 84, 82, 37, 189, 165, 138, 3, 188, 
21, 166, 151, 61, 170, 131, 41, 190, 15, 131, 198, 61, 
117, 98, 207, 61, 191, 207, 139, 61, 141, 104, 79, 190, 
41, 37, 18, 190, 243, 64, 85, 59, 177, 70, 119, 60, 
114, 67, 228, 189, 120, 194, 215, 189, 247, 161, 134, 189, 
131, 76, 188, 61, 242, 46, 219, 61, 190, 153, 252, 61, 
135, 76, 142, 61, 236, 208, 146, 189, 48, 191, 35, 61, 
90, 57, 13, 62, 90, 6, 60, 189, 90, 198, 196, 189, 
218, 240, 168, 189, 48, 92, 77, 62, 212, 73, 67, 188, 
185, 26, 61, 60, 98, 43, 4, 190, 202, 135, 197, 61, 
20, 252, 114, 189, 220, 5, 51, 189, 204, 36, 107, 61, 
163, 217, 164, 189, 238, 118, 27, 62, 122, 82, 252, 61, 
231, 38, 220, 61, 213, 20, 209, 61, 160, 45, 153, 61, 
19, 172, 28, 189, 67, 200, 172, 189, 44, 254, 234, 61, 
142, 180, 22, 62, 41, 134, 217, 61, 106, 235, 30, 190, 
253, 204, 161, 61, 198, 175, 6, 190, 188, 89, 2, 190, 
203, 53, 29, 189, 137, 19, 149, 189, 156, 14, 26, 190, 
71, 229, 116, 61, 143, 162, 93, 61, 54, 38, 177, 61, 
188, 167, 51, 62, 106, 40, 47, 189, 7, 23, 157, 188, 
198, 146, 249, 60, 18, 254, 208, 61, 184, 10, 208, 189, 
147, 155, 43, 61, 206, 6, 40, 188, 75, 126, 168, 61, 
50, 181, 184, 187, 120, 242, 73, 59, 232, 92, 159, 189, 
71, 32, 158, 189, 87, 155, 177, 61, 227, 203, 45, 190, 
195, 196, 32, 190, 179, 238, 198, 61, 192, 50, 18, 189, 
135, 146, 229, 60, 36, 249, 12, 62, 222, 89, 240, 189, 
36, 142, 243, 61, 64, 106, 36, 190, 166, 8, 60, 190, 
123, 27, 193, 61, 109, 250, 251, 59, 62, 24, 78, 61, 
124, 103, 89, 60, 156, 4, 116, 189, 177, 151, 27, 190, 
118, 102, 138, 61, 110, 180, 78, 189, 33, 145, 16, 190, 
173, 80, 2, 190, 13, 244, 145, 61, 138, 158, 196, 61, 
224, 197, 202, 189, 184, 45, 169, 59, 105, 104, 15, 190, 
95, 159, 210, 189, 82, 232, 59, 190, 96, 45, 101, 61, 
152, 8, 16, 62, 159, 147, 141, 62, 191, 223, 204, 59, 
133, 51, 32, 189, 119, 96, 133, 189, 211, 67, 199, 189, 
238, 13, 15, 190, 245, 55, 3, 190, 166, 250, 149, 62, 
53, 25, 25, 62, 4, 215, 248, 187, 97, 71, 134, 189, 
16, 133, 27, 62, 171, 211, 198, 188, 99, 45, 140, 61, 
202, 229, 122, 189, 227, 170, 180, 61, 75, 132, 235, 189, 
183, 229, 54, 60, 183, 94, 32, 190, 3, 132, 100, 189, 
70, 93, 114, 189, 75, 186, 217, 189, 147, 60, 132, 59, 
54, 212, 32, 61, 183, 71, 217, 189, 192, 245, 240, 189, 
161, 215, 13, 62, 71, 75, 73, 189, 94, 169, 118, 189, 
104, 229, 96, 190, 243, 19, 245, 189, 52, 131, 137, 61, 
253, 221, 24, 190, 141, 72, 236, 58, 252, 17, 195, 61, 
105, 78, 82, 189, 165, 186, 246, 188, 98, 237, 135, 189, 
118, 19, 13, 62, 203, 25, 119, 61, 173, 117, 9, 62, 
76, 155, 223, 189, 137, 146, 231, 189, 72, 39, 17, 61, 
126, 135, 230, 61, 215, 148, 97, 189, 172, 226, 189, 189, 
115, 67, 29, 189, 154, 102, 194, 189, 154, 232, 29, 62, 
62, 5, 222, 189, 8, 93, 173, 189, 116, 93, 134, 61, 
192, 250, 35, 189, 125, 215, 140, 60, 101, 12, 230, 61, 
16, 44, 21, 62, 82, 27, 97, 188, 237, 84, 24, 189, 
140, 236, 233, 61, 17, 224, 180, 189, 239, 12, 82, 189, 
18, 139, 10, 62, 134, 77, 138, 61, 68, 65, 105, 61, 
146, 70, 54, 187, 255, 68, 194, 61, 87, 177, 67, 189, 
7, 102, 234, 61, 37, 252, 208, 188, 229, 101, 186, 61, 
9, 144, 250, 61, 113, 101, 174, 189, 132, 56, 16, 62, 
68, 177, 194, 61, 92, 186, 7, 62, 193, 129, 152, 61, 
93, 117, 189, 187, 59, 168, 127, 189, 204, 138, 174, 189, 
5, 147, 217, 61, 87, 131, 132, 188, 28, 25, 95, 61, 
210, 134, 36, 189, 79, 11, 13, 190, 224, 136, 141, 189, 
248, 101, 242, 61, 241, 123, 170, 61, 240, 251, 191, 61, 
74, 78, 250, 189, 25, 153, 178, 189, 245, 98, 114, 189, 
142, 98, 92, 59, 3, 185, 1, 189, 172, 243, 24, 189, 
76, 140, 101, 189, 177, 169, 185, 188, 233, 181, 63, 189, 
234, 147, 253, 61, 93, 82, 251, 61, 25, 148, 150, 189, 
164, 22, 200, 61, 213, 143, 214, 189, 228, 33, 124, 61, 
124, 32, 147, 61, 157, 175, 182, 189, 13, 30, 149, 60, 
40, 177, 10, 190, 76, 120, 125, 189, 164, 235, 230, 189, 
13, 40, 120, 189, 14, 184, 155, 61, 24, 228, 73, 189, 
215, 27, 15, 62, 168, 193, 41, 61, 89, 220, 10, 190, 
22, 109, 249, 61, 22, 196, 170, 189, 31, 128, 27, 190, 
148, 25, 28, 189, 115, 75, 237, 186, 70, 255, 88, 61, 
151, 248, 111, 189, 243, 43, 178, 61, 46, 207, 135, 61, 
139, 187, 117, 189, 219, 134, 25, 190, 35, 84, 162, 189, 
87, 193, 229, 189, 250, 239, 72, 61, 18, 183, 3, 62, 
48, 218, 44, 189, 117, 103, 163, 189, 106, 138, 15, 190, 
202, 197, 199, 61, 209, 114, 200, 61, 191, 66, 198, 60, 
200, 77, 37, 189, 213, 126, 177, 60, 128, 81, 165, 61, 
217, 24, 246, 189, 239, 146, 253, 189, 128, 196, 142, 189, 
0, 99, 9, 190, 50, 182, 18, 190, 244, 123, 229, 189, 
155, 81, 163, 189, 24, 195, 169, 189, 113, 4, 221, 189, 
141, 174, 9, 189, 56, 244, 168, 60, 157, 122, 242, 187, 
205, 133, 83, 189, 198, 136, 176, 189, 149, 122, 27, 190, 
85, 236, 89, 189, 240, 157, 223, 61, 135, 137, 78, 190, 
211, 219, 140, 188, 213, 124, 47, 189, 219, 218, 249, 61, 
126, 228, 200, 189, 193, 61, 145, 60, 173, 21, 166, 61, 
224, 249, 97, 189, 254, 252, 42, 190, 237, 249, 224, 61, 
122, 109, 165, 56, 199, 7, 20, 190, 203, 132, 146, 189, 
0, 55, 159, 60, 48, 108, 153, 60, 17, 204, 164, 61, 
39, 194, 133, 189, 123, 32, 174, 188, 9, 158, 20, 190, 
146, 201, 178, 61, 240, 156, 93, 61, 162, 117, 180, 189, 
131, 31, 100, 61, 5, 41, 142, 189, 120, 194, 133, 188, 
6, 231, 143, 189, 163, 194, 40, 189, 124, 79, 52, 62, 
92, 134, 15, 61, 152, 44, 142, 60, 207, 110, 143, 188, 
205, 210, 237, 186, 132, 210, 45, 190, 203, 100, 90, 62, 
24, 56, 9, 62, 157, 251, 33, 190, 241, 41, 5, 62, 
29, 182, 234, 61, 124, 54, 204, 61, 92, 235, 1, 62, 
131, 110, 173, 61, 109, 138, 62, 189, 107, 106, 86, 190, 
234, 141, 178, 61, 213, 169, 27, 190, 89, 9, 81, 60, 
252, 102, 180, 189, 86, 157, 38, 189, 254, 32, 243, 61, 
228, 123, 4, 190, 113, 157, 153, 189, 98, 187, 23, 190, 
2, 183, 51, 188, 228, 213, 145, 189, 227, 165, 140, 61, 
106, 218, 20, 62, 94, 68, 65, 61, 52, 192, 76, 61, 
119, 130, 90, 189, 168, 193, 14, 190, 197, 141, 194, 61, 
126, 35, 19, 190, 195, 25, 222, 60, 168, 11, 164, 57, 
86, 127, 102, 61, 39, 4, 10, 62, 59, 237, 242, 61, 
216, 43, 37, 61, 99, 167, 153, 189, 163, 200, 208, 188, 
32, 23, 67, 189, 153, 6, 30, 190, 165, 20, 9, 62, 
53, 51, 118, 187, 22, 34, 183, 189, 210, 109, 175, 189, 
231, 196, 160, 188, 207, 249, 117, 189, 131, 255, 210, 189, 
207, 237, 38, 190, 210, 72, 145, 61, 21, 228, 128, 189, 
119, 61, 128, 189, 87, 219, 42, 59, 230, 47, 166, 189, 
156, 231, 105, 188, 152, 250, 163, 189, 87, 64, 53, 62, 
134, 228, 39, 62, 129, 9, 238, 189, 29, 120, 84, 61, 
140, 49, 120, 61, 224, 118, 42, 188, 97, 192, 90, 189, 
61, 28, 221, 60, 73, 147, 9, 62, 193, 183, 71, 60, 
151, 113, 92, 62, 53, 135, 22, 62, 162, 13, 233, 189, 
70, 248, 178, 187, 29, 53, 17, 190, 196, 30, 226, 61, 
8, 56, 169, 60, 79, 216, 82, 61, 87, 225, 42, 190, 
80, 63, 184, 61, 145, 253, 248, 189, 57, 78, 112, 61, 
255, 33, 123, 61, 38, 249, 23, 190, 45, 200, 211, 61, 
137, 56, 224, 60, 150, 213, 251, 61, 118, 169, 31, 188, 
225, 150, 223, 61, 225, 216, 19, 62, 227, 138, 146, 185, 
121, 142, 62, 190, 99, 195, 183, 61, 21, 19, 65, 189, 
195, 129, 49, 189, 231, 88, 76, 61, 7, 90, 224, 189, 
138, 181, 141, 189, 103, 159, 96, 190, 2, 164, 94, 190, 
84, 80, 62, 189, 121, 202, 62, 189, 132, 161, 84, 190, 
255, 59, 36, 190, 101, 102, 216, 189, 147, 148, 70, 61, 
123, 57, 17, 190, 191, 112, 20, 190, 1, 115, 57, 61, 
159, 36, 27, 62, 107, 183, 174, 60, 203, 75, 251, 61, 
45, 133, 136, 189, 70, 185, 49, 62, 140, 65, 5, 190, 
85, 170, 230, 189, 196, 141, 13, 190, 184, 198, 137, 60, 
218, 79, 40, 188, 110, 12, 145, 189, 224, 69, 33, 62, 
173, 41, 31, 61, 70, 26, 183, 61, 239, 134, 176, 61, 
79, 200, 188, 61, 221, 7, 7, 62, 57, 200, 170, 189, 
39, 39, 111, 61, 123, 189, 149, 61, 233, 54, 188, 188, 
52, 173, 198, 189, 238, 184, 11, 189, 189, 199, 128, 61, 
8, 184, 179, 58, 191, 157, 230, 61, 157, 249, 189, 189, 
85, 6, 47, 62, 92, 15, 116, 61, 245, 125, 23, 190, 
71, 160, 236, 189, 215, 250, 251, 59, 68, 240, 195, 189, 
211, 223, 248, 60, 208, 108, 231, 189, 205, 98, 162, 189, 
99, 5, 195, 60, 212, 181, 32, 189, 60, 71, 186, 189, 
31, 229, 176, 61, 11, 179, 177, 60, 105, 217, 237, 60, 
103, 85, 130, 189, 170, 245, 209, 189, 175, 107, 0, 189, 
149, 97, 180, 189, 59, 221, 203, 188, 185, 80, 187, 189, 
213, 193, 130, 61, 86, 168, 50, 61, 238, 70, 70, 189, 
188, 152, 247, 61, 136, 155, 65, 61, 188, 67, 68, 189, 
70, 208, 197, 189, 251, 126, 123, 61, 73, 251, 160, 61, 
228, 57, 4, 190, 33, 195, 90, 61, 104, 19, 75, 62, 
248, 132, 189, 61, 68, 238, 43, 61, 244, 53, 141, 189, 
208, 68, 142, 61, 154, 24, 8, 62, 198, 192, 44, 61, 
210, 77, 143, 190, 94, 239, 222, 61, 121, 92, 35, 62, 
46, 212, 185, 61, 100, 132, 33, 62, 127, 232, 10, 189, 
48, 24, 198, 61, 48, 30, 125, 61, 212, 19, 132, 61, 
221, 55, 19, 61, 95, 184, 110, 60, 252, 136, 6, 189, 
69, 43, 23, 190, 67, 68, 144, 189, 131, 113, 141, 62, 
